{
  "version": "1.0",
  "truncation": null,
  "padding": null,
  "added_tokens": [
    {
      "id": 0,
      "content": "<unk>",
      "single_word": false,
      "lstrip": false,
      "rstrip": false,
      "normalized": false,
      "special": true
    },
    {
      "id": 1,
      "content": "<s>",
      "single_word": false,
      "lstrip": false,
      "rstrip": false,
      "normalized": false,
      "special": true
    },
    {
      "id": 2,
      "content": "</s>",
      "single_word": false,
      "lstrip": false,
      "rstrip": false,
      "normalized": false,
      "special": true
    },
    {
      "id": 3,
      "content": "<pad>",
      "single_word": false,
      "lstrip": false,
      "rstrip": false,
      "normalized": false,
      "special": true
    },
    {
      "id": 4,
      "content": "<mask>",
      "single_word": false,
      "lstrip": false,
      "rstrip": false,
      "normalized": false,
      "special": true
    },
    {
      "id": 5,
      "content": "<document>",
      "single_word": false,
      "lstrip": false,
      "rstrip": false,
      "normalized": false,
      "special": true
    },
    {
      "id": 6,
      "content": "</document>",
      "single_word": false,
      "lstrip": false,
      "rstrip": false,
      "normalized": false,
      "special": true
    },
    {
      "id": 7,
      "content": "<assistant>",
      "single_word": false,
      "lstrip": false,
      "rstrip": false,
      "normalized": false,
      "special": true
    },
    {
      "id": 8,
      "content": "<reflection>",
      "single_word": false,
      "lstrip": false,
      "rstrip": false,
      "normalized": false,
      "special": true
    },
    {
      "id": 9,
      "content": "</reflection>",
      "single_word": false,
      "lstrip": false,
      "rstrip": false,
      "normalized": false,
      "special": true
    },
    {
      "id": 10,
      "content": "<|thought_start|>",
      "single_word": false,
      "lstrip": false,
      "rstrip": false,
      "normalized": false,
      "special": true
    },
    {
      "id": 11,
      "content": "<|thought_end|>",
      "single_word": false,
      "lstrip": false,
      "rstrip": false,
      "normalized": false,
      "special": true
    },
    {
      "id": 12,
      "content": "<|persona_start|>",
      "single_word": false,
      "lstrip": false,
      "rstrip": false,
      "normalized": false,
      "special": true
    },
    {
      "id": 13,
      "content": "<|persona_end|>",
      "single_word": false,
      "lstrip": false,
      "rstrip": false,
      "normalized": false,
      "special": true
    }
  ],
  "normalizer": {
    "type": "Sequence",
    "normalizers": [
      {
        "type": "NFKC"
      }
    ]
  },
  "pre_tokenizer": {
    "type": "ByteLevel",
    "add_prefix_space": false,
    "trim_offsets": true,
    "use_regex": true
  },
  "post_processor": {
    "type": "TemplateProcessing",
    "single": [
      {
        "Sequence": {
          "id": "A",
          "type_id": 0
        }
      }
    ],
    "pair": [
      {
        "Sequence": {
          "id": "A",
          "type_id": 0
        }
      },
      {
        "Sequence": {
          "id": "B",
          "type_id": 1
        }
      }
    ],
    "special_tokens": {}
  },
  "decoder": {
    "type": "ByteLevel",
    "add_prefix_space": true,
    "trim_offsets": true,
    "use_regex": true
  },
  "model": {
    "type": "BPE",
    "dropout": null,
    "unk_token": "<unk>",
    "continuing_subword_prefix": null,
    "end_of_word_suffix": null,
    "fuse_unk": false,
    "byte_fallback": false,
    "ignore_merges": false,
    "vocab": {
      "<unk>": 0,
      "<s>": 1,
      "</s>": 2,
      "<pad>": 3,
      "<mask>": 4,
      "<document>": 5,
      "</document>": 6,
      "<assistant>": 7,
      "<reflection>": 8,
      "</reflection>": 9,
      "<|thought_start|>": 10,
      "<|thought_end|>": 11,
      "<|persona_start|>": 12,
      "<|persona_end|>": 13,
      "!": 14,
      "\"": 15,
      "#": 16,
      "$": 17,
      "%": 18,
      "&": 19,
      "'": 20,
      "(": 21,
      ")": 22,
      "*": 23,
      "+": 24,
      ",": 25,
      "-": 26,
      ".": 27,
      "/": 28,
      "0": 29,
      "1": 30,
      "2": 31,
      "3": 32,
      "4": 33,
      "5": 34,
      "6": 35,
      "7": 36,
      "8": 37,
      "9": 38,
      ":": 39,
      ";": 40,
      "<": 41,
      "=": 42,
      ">": 43,
      "?": 44,
      "@": 45,
      "A": 46,
      "B": 47,
      "C": 48,
      "D": 49,
      "E": 50,
      "F": 51,
      "G": 52,
      "H": 53,
      "I": 54,
      "J": 55,
      "K": 56,
      "L": 57,
      "M": 58,
      "N": 59,
      "O": 60,
      "P": 61,
      "Q": 62,
      "R": 63,
      "S": 64,
      "T": 65,
      "U": 66,
      "V": 67,
      "W": 68,
      "X": 69,
      "Y": 70,
      "Z": 71,
      "[": 72,
      "\\": 73,
      "]": 74,
      "^": 75,
      "_": 76,
      "`": 77,
      "a": 78,
      "b": 79,
      "c": 80,
      "d": 81,
      "e": 82,
      "f": 83,
      "g": 84,
      "h": 85,
      "i": 86,
      "j": 87,
      "k": 88,
      "l": 89,
      "m": 90,
      "n": 91,
      "o": 92,
      "p": 93,
      "q": 94,
      "r": 95,
      "s": 96,
      "t": 97,
      "u": 98,
      "v": 99,
      "w": 100,
      "x": 101,
      "y": 102,
      "z": 103,
      "{": 104,
      "|": 105,
      "}": 106,
      "~": 107,
      "¡": 108,
      "¢": 109,
      "£": 110,
      "¤": 111,
      "¥": 112,
      "¦": 113,
      "§": 114,
      "¨": 115,
      "©": 116,
      "ª": 117,
      "«": 118,
      "¬": 119,
      "®": 120,
      "¯": 121,
      "°": 122,
      "±": 123,
      "²": 124,
      "³": 125,
      "´": 126,
      "µ": 127,
      "¶": 128,
      "·": 129,
      "¸": 130,
      "¹": 131,
      "º": 132,
      "»": 133,
      "¼": 134,
      "½": 135,
      "¾": 136,
      "¿": 137,
      "À": 138,
      "Á": 139,
      "Â": 140,
      "Ã": 141,
      "Ä": 142,
      "Å": 143,
      "Æ": 144,
      "Ç": 145,
      "È": 146,
      "É": 147,
      "Ê": 148,
      "Ë": 149,
      "Ì": 150,
      "Í": 151,
      "Î": 152,
      "Ï": 153,
      "Ð": 154,
      "Ñ": 155,
      "Ò": 156,
      "Ó": 157,
      "Ô": 158,
      "Õ": 159,
      "Ö": 160,
      "×": 161,
      "Ø": 162,
      "Ù": 163,
      "Ú": 164,
      "Û": 165,
      "Ü": 166,
      "Ý": 167,
      "Þ": 168,
      "ß": 169,
      "à": 170,
      "á": 171,
      "â": 172,
      "ã": 173,
      "ä": 174,
      "å": 175,
      "æ": 176,
      "ç": 177,
      "è": 178,
      "é": 179,
      "ê": 180,
      "ë": 181,
      "ì": 182,
      "í": 183,
      "î": 184,
      "ï": 185,
      "ð": 186,
      "ñ": 187,
      "ò": 188,
      "ó": 189,
      "ô": 190,
      "õ": 191,
      "ö": 192,
      "÷": 193,
      "ø": 194,
      "ù": 195,
      "ú": 196,
      "û": 197,
      "ü": 198,
      "ý": 199,
      "þ": 200,
      "ÿ": 201,
      "Ā": 202,
      "ā": 203,
      "Ă": 204,
      "ă": 205,
      "Ą": 206,
      "ą": 207,
      "Ć": 208,
      "ć": 209,
      "Ĉ": 210,
      "ĉ": 211,
      "Ċ": 212,
      "ċ": 213,
      "Č": 214,
      "č": 215,
      "Ď": 216,
      "ď": 217,
      "Đ": 218,
      "đ": 219,
      "Ē": 220,
      "ē": 221,
      "Ĕ": 222,
      "ĕ": 223,
      "Ė": 224,
      "ė": 225,
      "Ę": 226,
      "ę": 227,
      "Ě": 228,
      "ě": 229,
      "Ĝ": 230,
      "ĝ": 231,
      "Ğ": 232,
      "ğ": 233,
      "Ġ": 234,
      "ġ": 235,
      "Ģ": 236,
      "ģ": 237,
      "Ĥ": 238,
      "ĥ": 239,
      "Ħ": 240,
      "ħ": 241,
      "Ĩ": 242,
      "ĩ": 243,
      "Ī": 244,
      "ī": 245,
      "Ĭ": 246,
      "ĭ": 247,
      "Į": 248,
      "į": 249,
      "İ": 250,
      "ı": 251,
      "Ĳ": 252,
      "ĳ": 253,
      "Ĵ": 254,
      "ĵ": 255,
      "Ķ": 256,
      "ķ": 257,
      "ĸ": 258,
      "Ĺ": 259,
      "ĺ": 260,
      "Ļ": 261,
      "ļ": 262,
      "Ľ": 263,
      "ľ": 264,
      "Ŀ": 265,
      "ŀ": 266,
      "Ł": 267,
      "ł": 268,
      "Ń": 269,
      "Äĥ": 270,
      "Ġd": 271,
      "Ġa": 272,
      "re": 273,
      "Ġc": 274,
      "in": 275,
      "te": 276,
      "Ġp": 277,
      "Ġs": 278,
      "ri": 279,
      "Ġde": 280,
      "ul": 281,
      "le": 282,
      "ÈĽ": 283,
      "at": 284,
      "čĊ": 285,
      "ÈĻ": 286,
      "or": 287,
      "un": 288,
      "en": 289,
      "ĠÃ": 290,
      "an": 291,
      "Ġm": 292,
      "ĠÃ®": 293,
      "st": 294,
      "Ġl": 295,
      "ar": 296,
      "Ġf": 297,
      "ĠÃ®n": 298,
      "ic": 299,
      "on": 300,
      "are": 301,
      "ÈĽi": 302,
      "it": 303,
      "er": 304,
      "ÈĻi": 305,
      "al": 306,
      "Ġe": 307,
      "Ġn": 308,
      "ĠÈĻi": 309,
      "ce": 310,
      "ti": 311,
      "ui": 312,
      "ro": 313,
      "Ã¢": 314,
      "ra": 315,
      "Ġo": 316,
      "ru": 317,
      "Ġin": 318,
      "Ġv": 319,
      "ent": 320,
      "ie": 321,
      "ate": 322,
      "Ġla": 323,
      "Ġt": 324,
      "Ġcu": 325,
      "om": 326,
      "âĢ": 327,
      "ste": 328,
      "il": 329,
      "Ġdin": 330,
      "ol": 331,
      "Ã¢n": 332,
      "Ġun": 333,
      "ea": 334,
      "ĠC": 335,
      "cu": 336,
      "Ġre": 337,
      "ia": 338,
      "im": 339,
      "de": 340,
      "ului": 341,
      "Ġpe": 342,
      "ĠA": 343,
      "Ġma": 344,
      "Ġse": 345,
      "ur": 346,
      "ĠS": 347,
      "se": 348,
      "ii": 349,
      "ĠP": 350,
      "Ġca": 351,
      "Ġ1": 352,
      "Ġcare": 353,
      "Ġb": 354,
      "Ġce": 355,
      "Ġ(": 356,
      "Ġnu": 357,
      "ĠsÄĥ": 358,
      "ĠM": 359,
      "Ġcon": 360,
      "uri": 361,
      "Ġal": 362,
      "entru": 363,
      "ori": 364,
      "ut": 365,
      "am": 366,
      "ac": 367,
      "aÈĽi": 368,
      "ĠD": 369,
      "Ġg": 370,
      "Ġsa": 371,
      "is": 372,
      "Ġpentru": 373,
      "lor": 374,
      "Ġmai": 375,
      "pe": 376,
      "ĠcÄĥ": 377,
      "ĠR": 378,
      "oc": 379,
      "Ġpro": 380,
      "ot": 381,
      "Ġsi": 382,
      "ĠB": 383,
      "me": 384,
      "Ġeste": 385,
      "ost": 386,
      "ct": 387,
      "us": 388,
      "ine": 389,
      "iz": 390,
      "Ġan": 391,
      "rea": 392,
      "ĠâĢ": 393,
      "Ġ2": 394,
      "ĠI": 395,
      "Ġace": 396,
      "area": 397,
      "ist": 398,
      "tÄĥ": 399,
      "Ġpre": 400,
      "sc": 401,
      "el": 402,
      "rÄĥ": 403,
      "ci": 404,
      "si": 405,
      "ta": 406,
      "ici": 407,
      "um": 408,
      "ĠT": 409,
      "ei": 410,
      "mp": 411,
      "iv": 412,
      "ĠE": 413,
      "âĢĿ": 414,
      "atÄĥ": 415,
      "Ġau": 416,
      "up": 417,
      "Ġfost": 418,
      "tre": 419,
      "ch": 420,
      "ter": 421,
      "00": 422,
      "Ġfi": 423,
      "Ġi": 424,
      "Ġex": 425,
      "zi": 426,
      "ari": 427,
      "di": 428,
      "ale": 429,
      "rin": 430,
      "Ġcom": 431,
      "uc": 432,
      "ĠN": 433,
      "as": 434,
      "ĠL": 435,
      "ÈĻti": 436,
      "op": 437,
      "Ã¢nd": 438,
      "Ġap": 439,
      "ĠG": 440,
      "ub": 441,
      "Äĥt": 442,
      "Ġar": 443,
      "ile": 444,
      "ge": 445,
      "Ġ19": 446,
      "fe": 447,
      "Ġst": 448,
      "ov": 449,
      "os": 450,
      "ĠF": 451,
      "Ġne": 452,
      "zÄĥ": 453,
      "Ġpri": 454,
      "İn": 455,
      "ÈĽÄĥ": 456,
      "ma": 457,
      "ice": 458,
      "icÄĥ": 459,
      "Ġsp": 460,
      "ran": 461,
      "og": 462,
      "Ġte": 463,
      "Ġle": 464,
      "unt": 465,
      "Ġpar": 466,
      "Ġme": 467,
      "Ġdo": 468,
      "la": 469,
      "od": 470,
      "ĠâĢŀ": 471,
      "ĠU": 472,
      "Ġj": 473,
      "..": 474,
      "ĠV": 475,
      "ele": 476,
      "and": 477,
      "itate": 478,
      "Ġfa": 479,
      "Ġac": 480,
      "ÈĽii": 481,
      "rii": 482,
      "ilor": 483,
      "he": 484,
      "au": 485,
      "Ġpo": 486,
      "oa": 487,
      "sp": 488,
      "oi": 489,
      "Ġtre": 490,
      "ne": 491,
      "orm": 492,
      "alÄĥ": 493,
      "Ġsau": 494,
      "ÈĻte": 495,
      "Ġsunt": 496,
      "une": 497,
      "rie": 498,
      "ers": 499,
      "Ġprin": 500,
      "ĠO": 501,
      "ca": 502,
      "Ġro": 503,
      "ÈĽa": 504,
      "ve": 505,
      "ata": 506,
      "pt": 507,
      "Ġim": 508,
      "Ġ-": 509,
      "oare": 510,
      "bil": 511,
      "Ġmul": 512,
      "ze": 513,
      "Ġale": 514,
      "itÄĥ": 515,
      "va": 516,
      "sta": 517,
      "Äĥr": 518,
      "hi": 519,
      "du": 520,
      "ort": 521,
      "mb": 522,
      "Ġlui": 523,
      "tea": 524,
      "iei": 525,
      "ĠRom": 526,
      "Ġva": 527,
      "mÃ¢n": 528,
      "eni": 529,
      "ĠH": 530,
      "ind": 531,
      "Ġti": 532,
      "mi": 533,
      "za": 534,
      "Ġav": 535,
      "lu": 536,
      "sa": 537,
      "tele": 538,
      "din": 539,
      "lic": 540,
      "Ġor": 541,
      "ric": 542,
      "Ġad": 543,
      "ara": 544,
      "Ġ20": 545,
      "ĠÃ®nt": 546,
      "ura": 547,
      "Ġsc": 548,
      "Ġur": 549,
      "Ġdec": 550,
      "li": 551,
      "19": 552,
      "Ġat": 553,
      "Ġpu": 554,
      "),": 555,
      "ÈĽia": 556,
      "da": 557,
      "ane": 558,
      "rit": 559,
      "rat": 560,
      "ÈĽie": 561,
      "ing": 562,
      "ÈĻe": 563,
      "Ġcont": 564,
      "ĠÃİn": 565,
      "Ġcre": 566,
      "arÄĥ": 567,
      "Ġve": 568,
      "fic": 569,
      "Ġacest": 570,
      "ina": 571,
      "Ġpl": 572,
      "mul": 573,
      "ant": 574,
      "Ġam": 575,
      "tiv": 576,
      "ĠâĢĵ": 577,
      "ĠRomÃ¢n": 578,
      "Ġloc": 579,
      "gi": 580,
      "cut": 581,
      "sti": 582,
      "Ġto": 583,
      "ni": 584,
      "sÄĥ": 585,
      "ĠJ": 586,
      "Ġimp": 587,
      "uro": 588,
      "urile": 589,
      "upÄĥ": 590,
      "era": 591,
      "Ġaf": 592,
      "Ġcomp": 593,
      "cum": 594,
      "tate": 595,
      "Ã¢t": 596,
      "ati": 597,
      "ba": 598,
      "Ġtimp": 599,
      "Ġ3": 600,
      "man": 601,
      "onal": 602,
      "Ġdi": 603,
      "Ãİn": 604,
      "ir": 605,
      "ga": 606,
      "ud": 607,
      "Ġdar": 608,
      "Ġra": 609,
      "ĠrÄĥ": 610,
      "Ġvor": 611,
      "Ġiar": 612,
      "orul": 613,
      "ÈĽin": 614,
      "cÄĥ": 615,
      "ÈĽe": 616,
      "ten": 617,
      "ĠDe": 618,
      "acÄĥ": 619,
      "rile": 620,
      "Ġ200": 621,
      "Ġob": 622,
      "ini": 623,
      "ĠIn": 624,
      "ib": 625,
      "ord": 626,
      "âĢĿ,": 627,
      "et": 628,
      "ente": 629,
      "pre": 630,
      "rul": 631,
      "oar": 632,
      "Ġfie": 633,
      "ica": 634,
      "form": 635,
      "Ġh": 636,
      "id": 637,
      "mÄĥ": 638,
      "bui": 639,
      "Ġno": 640,
      "ĠK": 641,
      "itatea": 642,
      "ala": 643,
      "ĠRe": 644,
      "aliz": 645,
      "stÄĥ": 646,
      "ana": 647,
      "ene": 648,
      "cep": 649,
      ").": 650,
      "Ġsub": 651,
      "uni": 652,
      "eazÄĥ": 653,
      "ili": 654,
      "atul": 655,
      "min": 656,
      "Ġani": 657,
      "Ã¢r": 658,
      "Ġu": 659,
      "Ġinter": 660,
      "itu": 661,
      "ĠfÄĥ": 662,
      "Ġz": 663,
      "Ġcele": 664,
      "Ġof": 665,
      "Ġare": 666,
      "ap": 667,
      "ĠromÃ¢n": 668,
      "Ġpers": 669,
      "ces": 670,
      "ament": 671,
      "Ġcel": 672,
      "ven": 673,
      "urÄĥ": 674,
      "Ġdis": 675,
      "Ġco": 676,
      "unc": 677,
      "scu": 678,
      "dic": 679,
      "Ġacea": 680,
      "Ġtot": 681,
      "Ġzi": 682,
      "gÄĥ": 683,
      "ĠdupÄĥ": 684,
      "Ġpoate": 685,
      "ali": 686,
      "ua": 687,
      "Ġpol": 688,
      "Ġori": 689,
      "Ġint": 690,
      "...": 691,
      "uÄĥ": 692,
      "ÈĽion": 693,
      "ativ": 694,
      "Ġluc": 695,
      "ĠCon": 696,
      "Ġmo": 697,
      "Ġaj": 698,
      "Ġ201": 699,
      "ani": 700,
      "ver": 701,
      "Ġpot": 702,
      "na": 703,
      "chi": 704,
      "Ġtrebui": 705,
      "tul": 706,
      "pa": 707,
      "Ã®": 708,
      "ucu": 709,
      "olog": 710,
      "ai": 711,
      "erv": 712,
      "Ġas": 713,
      "ĠÃ®ntre": 714,
      "raf": 715,
      "Ġdintre": 716,
      "men": 717,
      "ener": 718,
      "ĠW": 719,
      "Ġcum": 720,
      "mele": 721,
      "ude": 722,
      "Ġmult": 723,
      "teri": 724,
      "spre": 725,
      "Ġspe": 726,
      "atori": 727,
      "ĠÃ®mp": 728,
      "Ġfe": 729,
      "Ġmin": 730,
      "ĠAn": 731,
      "Ġaceste": 732,
      "ite": 733,
      "ocu": 734,
      "Èĺ": 735,
      "De": 736,
      "ren": 737,
      "Ġinc": 738,
      "Ġleg": 739,
      "ult": 740,
      "lÄĥ": 741,
      "Ġtran": 742,
      "unÄĥ": 743,
      "Ã¢nÄĥ": 744,
      "ab": 745,
      "unea": 746,
      "aÈĽii": 747,
      "ag": 748,
      "Ġai": 749,
      "mn": 750,
      "Ġ4": 751,
      "oane": 752,
      "ron": 753,
      "Ġmare": 754,
      "Ġ18": 755,
      "zent": 756,
      "Ġ5": 757,
      "Ġsu": 758,
      "ublic": 759,
      "Ġele": 760,
      "uz": 761,
      "Ġ\"": 762,
      "Ġop": 763,
      "Ġru": 764,
      "Ġmi": 765,
      "gan": 766,
      "vi": 767,
      "con": 768,
      "Ġapro": 769,
      "ob": 770,
      "Ġface": 771,
      "ĠÃ®ntr": 772,
      "aÈĽia": 773,
      "dÄĥ": 774,
      "aÈĽie": 775,
      "ĠRomÃ¢nia": 776,
      "oarte": 777,
      "anÄĥ": 778,
      "Ġsec": 779,
      "Ġvi": 780,
      "ÈĻedin": 781,
      "lea": 782,
      "imb": 783,
      "Ġaut": 784,
      "ĠUn": 785,
      "Ġcar": 786,
      "Ġdep": 787,
      "ĠÈĻ": 788,
      "tic": 789,
      "erÄĥ": 790,
      "inte": 791,
      "Ġunui": 792,
      "fel": 793,
      "inÄĥ": 794,
      "Ġtra": 795,
      "Ġnum": 796,
      "duce": 797,
      "olo": 798,
      "sul": 799,
      "ĠpÄĥ": 800,
      "Ġel": 801,
      "Ġdespre": 802,
      "una": 803,
      "Ġmar": 804,
      "Ġconst": 805,
      "lar": 806,
      "Ġrec": 807,
      "peri": 808,
      "ĠmÄĥ": 809,
      "ĠcÃ¢nd": 810,
      "Ġnici": 811,
      "Ġsup": 812,
      "duc": 813,
      "scÄĥ": 814,
      "cea": 815,
      "mat": 816,
      "anu": 817,
      "Ġmod": 818,
      "ucure": 819,
      "care": 820,
      "Ġexp": 821,
      "Ġfiind": 822,
      "Ġmulte": 823,
      "Ġdoar": 824,
      "rilor": 825,
      "vol": 826,
      "âĢŀ": 827,
      "Ġper": 828,
      "ote": 829,
      "til": 830,
      "Ġprop": 831,
      "tie": 832,
      "Ġreg": 833,
      "ĠcÃ¢": 834,
      "ust": 835,
      "mbrie": 836,
      "Ġpolit": 837,
      "Ġanul": 838,
      "âĢĿ.": 839,
      "tat": 840,
      "Ġfoarte": 841,
      "20": 842,
      "Ġparte": 843,
      "itori": 844,
      "aca": 845,
      "ore": 846,
      "rept": 847,
      "Ġera": 848,
      "one": 849,
      "ĠBucure": 850,
      "ole": 851,
      "Ġora": 852,
      "Ġjude": 853,
      "ita": 854,
      "ÈĽele": 855,
      "cur": 856,
      "Ġtoate": 857,
      "ĠpÃ¢nÄĥ": 858,
      "Ġtrebuie": 859,
      "Ġab": 860,
      "Ġcop": 861,
      "Ġfunc": 862,
      "iile": 863,
      "Ã®n": 864,
      "Ġunei": 865,
      "opul": 866,
      "ure": 867,
      "Ġsim": 868,
      "Ġei": 869,
      "Ġli": 870,
      "ĠSe": 871,
      "Ġba": 872,
      "Ġform": 873,
      "Ġ,": 874,
      "itÄĥÈĽi": 875,
      "Ġfor": 876,
      "ĠÈĺ": 877,
      "ÈĽiei": 878,
      "ĠEuro": 879,
      "Ġdesc": 880,
      "mis": 881,
      "dit": 882,
      "cul": 883,
      "ograf": 884,
      "eg": 885,
      "vÄĥ": 886,
      "gra": 887,
      "Ġcea": 888,
      "alul": 889,
      "ĠAl": 890,
      "urilor": 891,
      "ĠBucureÈĻti": 892,
      "Ġlor": 893,
      "uver": 894,
      "ise": 895,
      "Ġunde": 896,
      "stfel": 897,
      "Ġdez": 898,
      "Ġavea": 899,
      "ĠdouÄĥ": 900,
      "Ġsus": 901,
      "vit": 902,
      "ĠÃ®nc": 903,
      "ion": 904,
      "ÈĽine": 905,
      "Ġcomun": 906,
      "Ġcap": 907,
      "Äĥtori": 908,
      "istÄĥ": 909,
      "Ġul": 910,
      "ment": 911,
      "Ġchi": 912,
      "Ġinte": 913,
      "Ġcaz": 914,
      "Ġbine": 915,
      "Ġcons": 916,
      "Ġlu": 917,
      "Ġprim": 918,
      "Ġcal": 919,
      "ĠcÄĥtre": 920,
      "gn": 921,
      "Ġcer": 922,
      "In": 923,
      "che": 924,
      "res": 925,
      "rec": 926,
      "Ġ199": 927,
      "uvern": 928,
      "Ġsol": 929,
      "ria": 930,
      "ania": 931,
      "Ġstat": 932,
      "Ġase": 933,
      "Ġfac": 934,
      "Ġci": 935,
      "Ġ6": 936,
      "Ġinst": 937,
      "der": 938,
      "Ġcei": 939,
      "asa": 940,
      "oz": 941,
      "ante": 942,
      "ĠdacÄĥ": 943,
      "arie": 944,
      "ĠAr": 945,
      "Ġurm": 946,
      "Ġeuro": 947,
      "Ġdrept": 948,
      "of": 949,
      "ute": 950,
      "Ġspeci": 951,
      "ug": 952,
      "ĠSt": 953,
      "ator": 954,
      "Ġperi": 955,
      "Ġfin": 956,
      "ona": 957,
      "ĠÃ®ncep": 958,
      "Ġr": 959,
      "feri": 960,
      "Ġsoc": 961,
      "ĠLa": 962,
      "ung": 963,
      "Ġdom": 964,
      "ova": 965,
      "cip": 966,
      "ace": 967,
      "Ġnoi": 968,
      "ĠCom": 969,
      "Ġpi": 970,
      "fect": 971,
      "Ġcl": 972,
      "arul": 973,
      "Ġorgan": 974,
      "dere": 975,
      "ÈĻa": 976,
      "ond": 977,
      "ĠaceastÄĥ": 978,
      "ĠZ": 979,
      "000": 980,
      "ove": 981,
      "18": 982,
      "Ġri": 983,
      "unci": 984,
      "fer": 985,
      "vo": 986,
      "cat": 987,
      "Ġcun": 988,
      "Ġgener": 989,
      "Ġdeclar": 990,
      "Ġrez": 991,
      "Ġdisp": 992,
      "spe": 993,
      "be": 994,
      "Ġlocu": 995,
      "Ġpriv": 996,
      "Ġlucru": 997,
      "Ġinf": 998,
      "aÈĽion": 999,
      "Ġoam": 1000,
      "hn": 1001,
      "Ġvre": 1002,
      "erman": 1003,
      "zb": 1004,
      "otri": 1005,
      "Ġpublic": 1006,
      "ĠCh": 1007,
      "ĠÈĻti": 1008,
      "tatea": 1009,
      "Ġpeste": 1010,
      "den": 1011,
      "Ġimport": 1012,
      "Ġ7": 1013,
      "Ġtrans": 1014,
      "Ġrepre": 1015,
      "Ġcontin": 1016,
      "lo": 1017,
      "art": 1018,
      "Ġpute": 1019,
      "Ġalte": 1020,
      "oase": 1021,
      "anta": 1022,
      "dus": 1023,
      "ivers": 1024,
      "ĠX": 1025,
      "meric": 1026,
      "Ġperioa": 1027,
      "Ġscri": 1028,
      "bu": 1029,
      "rum": 1030,
      "dea": 1031,
      "Ġfil": 1032,
      "Äĥturi": 1033,
      "Ġactiv": 1034,
      "âĢĵ": 1035,
      "II": 1036,
      "menea": 1037,
      "ans": 1038,
      "rect": 1039,
      "oast": 1040,
      "ctiv": 1041,
      "Ġcur": 1042,
      "urn": 1043,
      "Ġk": 1044,
      "tern": 1045,
      "ora": 1046,
      "ÈĽul": 1047,
      "ĠMe": 1048,
      "Ġchiar": 1049,
      "Ġsta": 1050,
      "Ġdist": 1051,
      "ard": 1052,
      "upra": 1053,
      "rup": 1054,
      "gh": 1055,
      "Ġsch": 1056,
      "old": 1057,
      "iect": 1058,
      "Ġer": 1059,
      "Ġavut": 1060,
      "co": 1061,
      "ĠPar": 1062,
      "Ġalt": 1063,
      "Ġasemenea": 1064,
      "und": 1065,
      "Ġ8": 1066,
      "ĠvÄĥ": 1067,
      "Ġfapt": 1068,
      "Ġthe": 1069,
      "Ġ10": 1070,
      "Ġgre": 1071,
      "lul": 1072,
      "gen": 1073,
      "Ġprezent": 1074,
      "ĠUni": 1075,
      "Ġzile": 1076,
      "Ġputea": 1077,
      "Ġw": 1078,
      "ble": 1079,
      "ĠfÄĥrÄĥ": 1080,
      "pte": 1081,
      "minist": 1082,
      "Ġastfel": 1083,
      "tin": 1084,
      "tr": 1085,
      "istori": 1086,
      "ĠPro": 1087,
      "Ġcad": 1088,
      "use": 1089,
      "lin": 1090,
      "Ġact": 1091,
      "Ġasta": 1092,
      "Ġmili": 1093,
      "Ġter": 1094,
      "iti": 1095,
      "rica": 1096,
      "ista": 1097,
      "ÈĽei": 1098,
      "ĠPe": 1099,
      "fici": 1100,
      "nÄĥ": 1101,
      "amil": 1102,
      "loc": 1103,
      "Ġgra": 1104,
      "aÈĽional": 1105,
      "izi": 1106,
      "Ġ9": 1107,
      "Ġunor": 1108,
      "olul": 1109,
      "ÈĽilor": 1110,
      "zin": 1111,
      "ĠNu": 1112,
      "fi": 1113,
      "cte": 1114,
      "rei": 1115,
      "mai": 1116,
      "Ġev": 1117,
      "Ġsiste": 1118,
      "Ġpat": 1119,
      "itul": 1120,
      "ok": 1121,
      "Ġinform": 1122,
      "asÄĥ": 1123,
      "Ġlim": 1124,
      "ĠoraÈĻ": 1125,
      "lex": 1126,
      "iment": 1127,
      "Ġdes": 1128,
      "Ġatunci": 1129,
      "Ġlum": 1130,
      "ĠpreÈĻedin": 1131,
      "Ġajun": 1132,
      "iale": 1133,
      "ĠÃ®ntÃ¢": 1134,
      "dent": 1135,
      "Ġmon": 1136,
      "terne": 1137,
      "lat": 1138,
      "gur": 1139,
      "Ġacum": 1140,
      "zboi": 1141,
      "pi": 1142,
      "tiliz": 1143,
      "ĠÃ®nceput": 1144,
      "cti": 1145,
      "rij": 1146,
      "Re": 1147,
      "ĠMa": 1148,
      "itor": 1149,
      "Ġtimpul": 1150,
      "Ġch": 1151,
      "Ġprecum": 1152,
      "unii": 1153,
      "200": 1154,
      "Ġistori": 1155,
      "mului": 1156,
      "Ġsitu": 1157,
      "ract": 1158,
      "itÄĥÈĽii": 1159,
      "aÈĽiei": 1160,
      "Ġfel": 1161,
      "enii": 1162,
      "dia": 1163,
      "ÈĽinut": 1164,
      "tului": 1165,
      "Ġmemb": 1166,
      "Ġceea": 1167,
      "conom": 1168,
      "Ġspus": 1169,
      "lui": 1170,
      "Ġajut": 1171,
      "Ġpie": 1172,
      "Ġtri": 1173,
      "Ġexe": 1174,
      "oni": 1175,
      "mite": 1176,
      "vin": 1177,
      "ha": 1178,
      "Ġsf": 1179,
      "Ġconf": 1180,
      "dep": 1181,
      "Ġfol": 1182,
      "SD": 1183,
      "lie": 1184,
      "ĠTe": 1185,
      "ĠsÄĥu": 1186,
      "Ġorganiz": 1187,
      "Ġsing": 1188,
      "Ġmom": 1189,
      "ule": 1190,
      "ĠNe": 1191,
      "Ġpopul": 1192,
      "atului": 1193,
      "pÄĥ": 1194,
      "Ġdeclarat": 1195,
      "dem": 1196,
      "rate": 1197,
      "Ġserv": 1198,
      "ĠMi": 1199,
      "ĠcÃ¢t": 1200,
      "je": 1201,
      "Ġschimb": 1202,
      "Ġ15": 1203,
      "ÈĽiile": 1204,
      "Ġasupra": 1205,
      "Ġprote": 1206,
      "Ġmun": 1207,
      "Ġaceasta": 1208,
      "Ġcol": 1209,
      "duse": 1210,
      "uÈĻ": 1211,
      "ĠapÄĥ": 1212,
      "Ġsale": 1213,
      "erul": 1214,
      "ĠRus": 1215,
      "Ġval": 1216,
      "ivel": 1217,
      "arii": 1218,
      "av": 1219,
      "Ġulti": 1220,
      "Ġconsi": 1221,
      "orii": 1222,
      "Ġvia": 1223,
      "Ġ198": 1224,
      "Ġrealiz": 1225,
      "Ġtrei": 1226,
      "ĠAce": 1227,
      "Ġpun": 1228,
      "Ã©": 1229,
      "lus": 1230,
      "act": 1231,
      "sten": 1232,
      "Ġet": 1233,
      "Ġutiliz": 1234,
      "ĠfÄĥcut": 1235,
      "sibil": 1236,
      "xim": 1237,
      "ja": 1238,
      "ĠÃ®ÈĻi": 1239,
      "par": 1240,
      "Ġcat": 1241,
      "Ġcor": 1242,
      "ĠMar": 1243,
      "Ġspre": 1244,
      "aria": 1245,
      "Ġameric": 1246,
      "tid": 1247,
      "Ġproble": 1248,
      "lament": 1249,
      "ĠgÄĥ": 1250,
      "ĠÈĽÄĥ": 1251,
      "Ġmedic": 1252,
      "La": 1253,
      "ĠâĢľ": 1254,
      "Ġcan": 1255,
      "eascÄĥ": 1256,
      "Ġcelor": 1257,
      "ĠPre": 1258,
      "Ġasi": 1259,
      "Ġnivel": 1260,
      "Ġrespe": 1261,
      "tii": 1262,
      "Ġguvern": 1263,
      "Ġade": 1264,
      "ÈĽat": 1265,
      "Äĥri": 1266,
      "Ġ17": 1267,
      "ĠÃ®ncÄĥ": 1268,
      "gin": 1269,
      "iÈĽi": 1270,
      "ue": 1271,
      "ĠÃ®i": 1272,
      "Ġnevo": 1273,
      "tici": 1274,
      "Äĥtoare": 1275,
      "Ġfiecare": 1276,
      "Ġunul": 1277,
      "Ġechi": 1278,
      "Ġprincip": 1279,
      "iu": 1280,
      "Con": 1281,
      "Ġsen": 1282,
      "itat": 1283,
      "spun": 1284,
      "Ġfamil": 1285,
      "tra": 1286,
      "Ġmari": 1287,
      "Ġfolos": 1288,
      "Ġprima": 1289,
      "ose": 1290,
      "tal": 1291,
      "stul": 1292,
      "Ġ197": 1293,
      "ainte": 1294,
      "ict": 1295,
      "Ġpa": 1296,
      "Ġmoment": 1297,
      "reg": 1298,
      "ĠRomÃ¢niei": 1299,
      "upa": 1300,
      "ĠÃ®nsÄĥ": 1301,
      "Ġcadrul": 1302,
      "Ġprofe": 1303,
      "ert": 1304,
      "oan": 1305,
      "bi": 1306,
      "Ġpartea": 1307,
      "ubl": 1308,
      "ĠdecÃ¢t": 1309,
      "ografie": 1310,
      "ĠPSD": 1311,
      "tÄĥÈĽi": 1312,
      "Ġnoast": 1313,
      "ĠÃ®l": 1314,
      "isc": 1315,
      "ĠaÈĻa": 1316,
      "ĠEl": 1317,
      "Ġdat": 1318,
      "ilit": 1319,
      "Ġon": 1320,
      "Ġapar": 1321,
      "Ġspune": 1322,
      "ozi": 1323,
      "Ġdezvol": 1324,
      "icii": 1325,
      "terior": 1326,
      "Ġmaj": 1327,
      "ape": 1328,
      "Ġlocal": 1329,
      "Ġ.": 1330,
      "Äĥtor": 1331,
      "Äĥrii": 1332,
      "Ġpersoane": 1333,
      "anÈĽÄĥ": 1334,
      "cra": 1335,
      "Ġref": 1336,
      "Ġalege": 1337,
      "Ġviz": 1338,
      "Ġurma": 1339,
      "urii": 1340,
      "atele": 1341,
      "omb": 1342,
      "Ġpen": 1343,
      "Ġvot": 1344,
      "ĠFran": 1345,
      "ad": 1346,
      "ĠfaÈĽÄĥ": 1347,
      "Ġregi": 1348,
      "Ġsur": 1349,
      "zut": 1350,
      "ĠÈĽ": 1351,
      "Ġeconom": 1352,
      "otriva": 1353,
      "Ġbun": 1354,
      "!!": 1355,
      "prin": 1356,
      "Ġ194": 1357,
      "ĠConst": 1358,
      "Ġelect": 1359,
      "Ġum": 1360,
      "Ġfot": 1361,
      "az": 1362,
      "Ġnat": 1363,
      "Ġtip": 1364,
      "bile": 1365,
      "oarea": 1366,
      "es": 1367,
      "Ġroman": 1368,
      "ĠromÃ¢ni": 1369,
      "oli": 1370,
      "Ġacord": 1371,
      "Ġlib": 1372,
      "Ġexterne": 1373,
      "Ġfolo": 1374,
      "feren": 1375,
      "rag": 1376,
      "Ġave": 1377,
      "Ġrap": 1378,
      "ĠcÃ¢te": 1379,
      "Ġmate": 1380,
      "derea": 1381,
      "Ġtele": 1382,
      "AT": 1383,
      "lan": 1384,
      "Ġpost": 1385,
      "curi": 1386,
      "ĠpuÈĽin": 1387,
      "Ġacestui": 1388,
      "Ġorice": 1389,
      "Ġales": 1390,
      "Un": 1391,
      "tri": 1392,
      "Ġneces": 1393,
      "sea": 1394,
      "ow": 1395,
      "Ġdem": 1396,
      "Ġdaca": 1397,
      "Leg": 1398,
      "Ġapoi": 1399,
      "ĠCar": 1400,
      "Ġgrup": 1401,
      "Ġnou": 1402,
      "Ġprivind": 1403,
      "Ġcau": 1404,
      "ĠurmÄĥ": 1405,
      "ĠOr": 1406,
      "ĠAd": 1407,
      "Ġdirect": 1408,
      "ĠDum": 1409,
      "ĠatÃ¢t": 1410,
      "rim": 1411,
      "Ġmen": 1412,
      "Ġsal": 1413,
      "anii": 1414,
      "ual": 1415,
      "unte": 1416,
      "pat": 1417,
      "ola": 1418,
      "10": 1419,
      "ox": 1420,
      "ptÄĥ": 1421,
      "reazÄĥ": 1422,
      "Ġacesta": 1423,
      "ĠcÄĥr": 1424,
      "Ġprimul": 1425,
      "Ġea": 1426,
      "Ġpier": 1427,
      "Ġcent": 1428,
      "ĠnumÄĥr": 1429,
      "venit": 1430,
      "aÈĻte": 1431,
      "||": 1432,
      "Ġaici": 1433,
      "mei": 1434,
      "Ġtine": 1435,
      "ĠEste": 1436,
      "ĠUcra": 1437,
      "Ġta": 1438,
      "aÈĽiile": 1439,
      "Ġcopii": 1440,
      "ĠMold": 1441,
      "sion": 1442,
      "Ġ202": 1443,
      "com": 1444,
      "Ġie": 1445,
      "Ġdata": 1446,
      "Ġdev": 1447,
      "ĠThe": 1448,
      "cin": 1449,
      "Ġadminist": 1450,
      "eaza": 1451,
      "est": 1452,
      "Ġartic": 1453,
      "line": 1454,
      "199": 1455,
      "Ġoameni": 1456,
      "ime": 1457,
      "Ġaceea": 1458,
      "Ġperioada": 1459,
      "ĠDin": 1460,
      "amp": 1461,
      "Ġrel": 1462,
      "\",": 1463,
      "Ġpartici": 1464,
      "Ġ16": 1465,
      "Ġ12": 1466,
      "Ġlup": 1467,
      "Ġluni": 1468,
      "Ġlocuitori": 1469,
      "Ġpunct": 1470,
      "Ġpotri": 1471,
      "Ġuna": 1472,
      "Ġcate": 1473,
      "Ġspecial": 1474,
      "ĠSp": 1475,
      "Ġnumai": 1476,
      "Ġanun": 1477,
      "Ġsemn": 1478,
      "Ġacela": 1479,
      "fÄĥ": 1480,
      "Nu": 1481,
      "ĠLe": 1482,
      "Ġreprezent": 1483,
      "Ġen": 1484,
      "Ġerau": 1485,
      "oria": 1486,
      "ĠY": 1487,
      "ĠrÄĥzboi": 1488,
      "ĠCu": 1489,
      "ĠEurope": 1490,
      "ĠâĢĿ": 1491,
      "Ġpor": 1492,
      "Ġconstru": 1493,
      "ase": 1494,
      "Ġmilioane": 1495,
      "Se": 1496,
      "Ġcunos": 1497,
      "diu": 1498,
      "enÈĽa": 1499,
      "bÄĥ": 1500,
      "Pro": 1501,
      "Ġven": 1502,
      "Ã¢ndu": 1503,
      "oh": 1504,
      "anie": 1505,
      "Èļ": 1506,
      "Ġdece": 1507,
      "Ġ196": 1508,
      "uie": 1509,
      "ĠNic": 1510,
      "Ġag": 1511,
      "Äĥtate": 1512,
      "tare": 1513,
      "Ġnim": 1514,
      "diul": 1515,
      "iÈĻ": 1516,
      "ĠCe": 1517,
      "rol": 1518,
      "Ġis": 1519,
      "uÈĻi": 1520,
      "17": 1521,
      "lig": 1522,
      "Ġceva": 1523,
      "ĠÃ®nce": 1524,
      "public": 1525,
      "Ġom": 1526,
      "Pe": 1527,
      "Ġand": 1528,
      "stea": 1529,
      "Ġnumele": 1530,
      "ou": 1531,
      "cÈĽi": 1532,
      "aci": 1533,
      "ghe": 1534,
      "ĠEx": 1535,
      "unile": 1536,
      "erat": 1537,
      "sca": 1538,
      "Ġdoi": 1539,
      "ĠexistÄĥ": 1540,
      "ss": 1541,
      "Ġcole": 1542,
      "Ġnevoie": 1543,
      "Ġcult": 1544,
      "Ġdiv": 1545,
      "Ġneg": 1546,
      "teazÄĥ": 1547,
      "Ġput": 1548,
      "LegÄĥturi": 1549,
      "50": 1550,
      "Ġcazul": 1551,
      "Ġproiect": 1552,
      "Ġbise": 1553,
      "ĠMon": 1554,
      "ĠmÄĥs": 1555,
      "rÃ¢n": 1556,
      "Ġacu": 1557,
      "ĠÃ®mpotriva": 1558,
      "ume": 1559,
      "Ġ14": 1560,
      "ĠstrÄĥ": 1561,
      "âĢĻ": 1562,
      "Ġmilit": 1563,
      "Ġcul": 1564,
      "sk": 1565,
      "Com": 1566,
      "Ġprogra": 1567,
      "Pre": 1568,
      "Ġcine": 1569,
      "UA": 1570,
      "ton": 1571,
      "Ġpubl": 1572,
      "Ġproduc": 1573,
      "tarea": 1574,
      "Ġdoua": 1575,
      "Ġconc": 1576,
      "Ġlei": 1577,
      "Note": 1578,
      "dele": 1579,
      "Ġcand": 1580,
      "oara": 1581,
      "Ġpla": 1582,
      "Ġtehn": 1583,
      "mar": 1584,
      "Ġefect": 1585,
      "Ġacestea": 1586,
      "ig": 1587,
      "Ġdu": 1588,
      "urul": 1589,
      "Ġautori": 1590,
      "Ġproduse": 1591,
      "zat": 1592,
      "Ġple": 1593,
      "anda": 1594,
      "rele": 1595,
      "ruct": 1596,
      "ster": 1597,
      "Ġfran": 1598,
      "rop": 1599,
      "anul": 1600,
      "Ġtrecut": 1601,
      "luj": 1602,
      "orului": 1603,
      "anÈĽa": 1604,
      "ĠjudeÈĽul": 1605,
      "Ġexemp": 1606,
      "Ġposibil": 1607,
      "ern": 1608,
      "Ġgeneral": 1609,
      "tÄĥÈĽii": 1610,
      "Ġvedere": 1611,
      "Ġcere": 1612,
      "Ġaproape": 1613,
      "AR": 1614,
      "Ġintr": 1615,
      "ĠUnivers": 1616,
      "bal": 1617,
      "inÈĽÄĥ": 1618,
      "unie": 1619,
      "regist": 1620,
      "itiv": 1621,
      "volu": 1622,
      "ww": 1623,
      "Ġlocul": 1624,
      "erg": 1625,
      "Ġresp": 1626,
      "Ġofici": 1627,
      "An": 1628,
      "aÈĽionalÄĥ": 1629,
      "Ġintre": 1630,
      "12": 1631,
      "lusiv": 1632,
      "aÈĽionale": 1633,
      "ĠCa": 1634,
      "ilea": 1635,
      "30": 1636,
      "sele": 1637,
      "Ġintern": 1638,
      "Ġide": 1639,
      "erc": 1640,
      "bat": 1641,
      "Ġver": 1642,
      "rist": 1643,
      "Ġsoci": 1644,
      "Ġfaptul": 1645,
      "Ġcomple": 1646,
      "ret": 1647,
      "Ġ30": 1648,
      "ĠcreÈĻte": 1649,
      "Ġaplic": 1650,
      "ficÄĥ": 1651,
      "Ġape": 1652,
      "Ġda": 1653,
      "ĠaflÄĥ": 1654,
      "ip": 1655,
      "ologie": 1656,
      "Ġscris": 1657,
      "Ġarm": 1658,
      "oci": 1659,
      "ĠPentru": 1660,
      "inÈĽe": 1661,
      "oarÄĥ": 1662,
      "Ġind": 1663,
      "ism": 1664,
      "neze": 1665,
      "rut": 1666,
      "Ġden": 1667,
      "utul": 1668,
      "ke": 1669,
      "gaj": 1670,
      "Ġocu": 1671,
      "Ġtrat": 1672,
      "Ġnume": 1673,
      "anuarie": 1674,
      "Ġsimp": 1675,
      "ĠMo": 1676,
      "Ġmuz": 1677,
      "Ġdecembrie": 1678,
      "ĠbÄĥ": 1679,
      "16": 1680,
      "onul": 1681,
      "olit": 1682,
      "ĠSf": 1683,
      "ĠSi": 1684,
      "Ġsan": 1685,
      "ĠGe": 1686,
      "Ġia": 1687,
      "Ġmic": 1688,
      "cutÄĥ": 1689,
      "enÈĽi": 1690,
      "Ġfond": 1691,
      "Ġinve": 1692,
      "ĠvÃ¢r": 1693,
      "Ġmartie": 1694,
      "ĠcÃ¢ÈĻti": 1695,
      "ĠAm": 1696,
      "tion": 1697,
      "ral": 1698,
      "ĠAp": 1699,
      "ĠmulÈĽi": 1700,
      "ditura": 1701,
      "bilÄĥ": 1702,
      "gust": 1703,
      "Ġuc": 1704,
      "Ġlung": 1705,
      "ĠÃ®nainte": 1706,
      "Ġtransp": 1707,
      "Ġiunie": 1708,
      "Ġpersonal": 1709,
      "inei": 1710,
      "Al": 1711,
      "Ġ0": 1712,
      "ritori": 1713,
      "Ġdupa": 1714,
      "Ġeu": 1715,
      "tific": 1716,
      "15": 1717,
      "Ġcir": 1718,
      "Ġcuv": 1719,
      "nic": 1720,
      "ferite": 1721,
      "ragn": 1722,
      "gat": 1723,
      "irea": 1724,
      "ragnea": 1725,
      "end": 1726,
      "Ġimag": 1727,
      "Ġsud": 1728,
      "uit": 1729,
      "bru": 1730,
      "ope": 1731,
      "Ġvin": 1732,
      "Ġprea": 1733,
      "Ġ:": 1734,
      "Ar": 1735,
      "Ġconsider": 1736,
      "jul": 1737,
      "Ġgerman": 1738,
      "Ġianuarie": 1739,
      "mo": 1740,
      "ptembrie": 1741,
      "cute": 1742,
      "ĠcÃ¢teva": 1743,
      "lexand": 1744,
      "oritatea": 1745,
      "ex": 1746,
      "bit": 1747,
      "Ġ13": 1748,
      "las": 1749,
      "Ġep": 1750,
      "ezi": 1751,
      "tor": 1752,
      "Äĥs": 1753,
      "ombrie": 1754,
      "Ġlimba": 1755,
      "tia": 1756,
      "ulie": 1757,
      "Ġdate": 1758,
      "bo": 1759,
      "Ġbi": 1760,
      "iere": 1761,
      "lam": 1762,
      "Ġnord": 1763,
      "oate": 1764,
      "ĠUnite": 1765,
      "Ġrev": 1766,
      "Ġcontinu": 1767,
      "Ġstud": 1768,
      "ibli": 1769,
      "ĠDar": 1770,
      "ris": 1771,
      "Ġener": 1772,
      "run": 1773,
      "Ġpotrivit": 1774,
      "Ġcontra": 1775,
      "Me": 1776,
      "ctombrie": 1777,
      "iembrie": 1778,
      "stit": 1779,
      "ÄĥrÈĽi": 1780,
      "Ġproces": 1781,
      "Ã¢nt": 1782,
      "Ã¡": 1783,
      "Ġvine": 1784,
      "Ġstabil": 1785,
      "ĠCons": 1786,
      "Ġjuc": 1787,
      "urat": 1788,
      "usti": 1789,
      "ĠPrin": 1790,
      "zintÄĥ": 1791,
      "Ġminist": 1792,
      "Ġil": 1793,
      "Ġvol": 1794,
      "Ġsuc": 1795,
      "pene": 1796,
      "Ġpartid": 1797,
      "Ġamb": 1798,
      "Ġdocum": 1799,
      "Ġdevenit": 1800,
      "amentul": 1801,
      "tei": 1802,
      "ciz": 1803,
      "ative": 1804,
      "vÄĥr": 1805,
      "Ġcarac": 1806,
      "ation": 1807,
      "dio": 1808,
      "ĠUE": 1809,
      "Ġcri": 1810,
      "enÈĽÄĥ": 1811,
      "Ġlip": 1812,
      "ĠÃ®nÈĽele": 1813,
      "Ġlans": 1814,
      "ĠÃ®mpre": 1815,
      "Ġcauza": 1816,
      "ĠPri": 1817,
      "atorii": 1818,
      "ĠÈĻe": 1819,
      "ĠRa": 1820,
      "rilie": 1821,
      "Ġmag": 1822,
      "14": 1823,
      "ĠromÃ¢ne": 1824,
      "Ġdeja": 1825,
      "Ġ195": 1826,
      "pro": 1827,
      "Ġdim": 1828,
      "Ġ/": 1829,
      "atii": 1830,
      "Ġliber": 1831,
      "Ġ!": 1832,
      "ger": 1833,
      "ĠplÄĥ": 1834,
      "Ġseptembrie": 1835,
      "stin": 1836,
      "Ã¢rÈĻ": 1837,
      "Ġsti": 1838,
      "Ġscur": 1839,
      "tive": 1840,
      "Ġnoiembrie": 1841,
      "Ġpur": 1842,
      "sol": 1843,
      "enta": 1844,
      "Ġpremi": 1845,
      "ĠrÃ¢nd": 1846,
      "Ġaugust": 1847,
      "Ġsite": 1848,
      "Ġoctombrie": 1849,
      "ame": 1850,
      "ĠÃ®ntÃ¢l": 1851,
      "ĠTim": 1852,
      "oÈĻ": 1853,
      "sit": 1854,
      "Ġfrance": 1855,
      "ĠSUA": 1856,
      "Ġnr": 1857,
      "ĠRÄĥ": 1858,
      "antÄĥ": 1859,
      "oasÄĥ": 1860,
      "Ġcamp": 1861,
      "ĠÃ®nch": 1862,
      "Ġinstitu": 1863,
      "Ġangaj": 1864,
      "for": 1865,
      "ferit": 1866,
      "198": 1867,
      "Ġ193": 1868,
      "ĠdatÄĥ": 1869,
      "th": 1870,
      "ĠAnd": 1871,
      "Ġinv": 1872,
      "ĠÈĺi": 1873,
      "len": 1874,
      "Ġconte": 1875,
      "Ġajuns": 1876,
      "Ġgen": 1877,
      "Ġafir": 1878,
      "Ġarti": 1879,
      "Ġcin": 1880,
      "NA": 1881,
      "ducerea": 1882,
      "car": 1883,
      "ribu": 1884,
      "Ġso": 1885,
      "Äĥl": 1886,
      "Ġiulie": 1887,
      "Ġfinan": 1888,
      "hid": 1889,
      "Ġcondi": 1890,
      "ĠrÄĥspun": 1891,
      "imba": 1892,
      "ĠRepublic": 1893,
      "ĠtrÄĥ": 1894,
      "oarece": 1895,
      "ĠÃ®nregist": 1896,
      "ĠGerman": 1897,
      "onia": 1898,
      "ĠpreÈĻedinte": 1899,
      "urg": 1900,
      "Ġaprilie": 1901,
      "ricÄĥ": 1902,
      "ĠRusia": 1903,
      "bor": 1904,
      "Ġvenit": 1905,
      "Ġkm": 1906,
      "ĠacelaÈĻi": 1907,
      "Ġmodi": 1908,
      "Ġten": 1909,
      "Ġge": 1910,
      "ĠMoldova": 1911,
      "Ġdeciz": 1912,
      "fin": 1913,
      "ximativ": 1914,
      "Ġpare": 1915,
      "Ġputern": 1916,
      "ĠDumneze": 1917,
      "ortul": 1918,
      "ay": 1919,
      "ian": 1920,
      "asi": 1921,
      "ĠVi": 1922,
      "dat": 1923,
      "odatÄĥ": 1924,
      "Ġprof": 1925,
      "ĠviaÈĽÄĥ": 1926,
      "ill": 1927,
      "ĠEditura": 1928,
      "197": 1929,
      "ĠII": 1930,
      "aniei": 1931,
      "Ġlin": 1932,
      "Ġdomeni": 1933,
      "bruarie": 1934,
      "entele": 1935,
      "Ġteritori": 1936,
      "ptÄĥmÃ¢n": 1937,
      "per": 1938,
      "ĠTran": 1939,
      "ĠMare": 1940,
      "Ġpus": 1941,
      "Ġprov": 1942,
      "Ġetc": 1943,
      "eb": 1944,
      "operi": 1945,
      "ĠEuropa": 1946,
      "ÈĻtii": 1947,
      "Ġeven": 1948,
      "Ġus": 1949,
      "Ġcerce": 1950,
      "del": 1951,
      "Ġridic": 1952,
      "Ġzona": 1953,
      "Ġni": 1954,
      "les": 1955,
      "aÈĻi": 1956,
      "Ġmateri": 1957,
      "Ġfolosi": 1958,
      "sei": 1959,
      "ĠOl": 1960,
      "13": 1961,
      "pl": 1962,
      "acul": 1963,
      "orie": 1964,
      "Ġcopil": 1965,
      "ĠReg": 1966,
      "Ġvo": 1967,
      "Ġinteres": 1968,
      "cident": 1969,
      "ful": 1970,
      "Ġjudec": 1971,
      "Ġexperi": 1972,
      "Ġvrea": 1973,
      "Ġtur": 1974,
      "Ġna": 1975,
      "Ġsecolul": 1976,
      "Ġsigur": 1977,
      "Ġalb": 1978,
      "ann": 1979,
      "Ġprofes": 1980,
      "âĢľ": 1981,
      "ĠState": 1982,
      "Ġlume": 1983,
      "ĠIs": 1984,
      "ĠUcraina": 1985,
      "Ġacolo": 1986,
      "utÄĥ": 1987,
      "ĠacÈĽi": 1988,
      "ĠfaÈĽa": 1989,
      "Ġpatru": 1990,
      "ler": 1991,
      "Ġanului": 1992,
      "Ġpune": 1993,
      "Pentru": 1994,
      "ĠDragnea": 1995,
      "mit": 1996,
      "Ġasa": 1997,
      "dust": 1998,
      "omn": 1999,
      "Ġfebruarie": 2000,
      "ĠCi": 2001,
      "ĠDi": 2002,
      "ĠChi": 2003,
      "ĠDumnezeu": 2004,
      "cÈĽie": 2005,
      "ena": 2006,
      "Ã¢ngÄĥ": 2007,
      "Ġprodus": 2008,
      "Ġdiferite": 2009,
      "to": 2010,
      "Ġdum": 2011,
      "col": 2012,
      "die": 2013,
      "Ġavem": 2014,
      "Ġstu": 2015,
      "dial": 2016,
      "can": 2017,
      "ritate": 2018,
      "Ġbani": 2019,
      "amente": 2020,
      "fiin": 2021,
      "ĠpreÈĻedintele": 2022,
      "Ġconform": 2023,
      "NaÈĻte": 2024,
      "Ġproce": 2025,
      "alele": 2026,
      "Ġexemplu": 2027,
      "Ġoper": 2028,
      "Ġluat": 2029,
      "RI": 2030,
      "Ġunele": 2031,
      "Ġest": 2032,
      "Ġliter": 2033,
      "ĠÃ®mb": 2034,
      "Ġaten": 2035,
      "cept": 2036,
      "ĠiniÈĽi": 2037,
      "ĠÃ®mpreunÄĥ": 2038,
      "Ġbaza": 2039,
      "ĠPa": 2040,
      "cÈĽia": 2041,
      "rare": 2042,
      "ĠÈĽarÄĥ": 2043,
      "ĠAlexand": 2044,
      "ack": 2045,
      "Ġbu": 2046,
      "tim": 2047,
      "Ġche": 2048,
      "Ġasig": 2049,
      "Ġfrum": 2050,
      "umul": 2051,
      "Ġpract": 2052,
      "ich": 2053,
      "Ġmici": 2054,
      "ensi": 2055,
      "Ġprie": 2056,
      "ĠsÄĥptÄĥmÃ¢n": 2057,
      "Ġaproximativ": 2058,
      "ĠMini": 2059,
      "Ġprimit": 2060,
      "Ġsem": 2061,
      "NaÈĻteri": 2062,
      "Ġucra": 2063,
      "ĠNew": 2064,
      "ĠuÈĻ": 2065,
      "arte": 2066,
      "erci": 2067,
      "diat": 2068,
      "his": 2069,
      "Ġlumea": 2070,
      "Ġanum": 2071,
      "Ġcli": 2072,
      "Ġ|": 2073,
      "Ġnost": 2074,
      "Ġcorp": 2075,
      "ĠDupÄĥ": 2076,
      "nea": 2077,
      "Ġbene": 2078,
      "ĠcÃ¢n": 2079,
      "ĠÈļ": 2080,
      "uia": 2081,
      "Ġproprie": 2082,
      "stÄĥzi": 2083,
      "Äĥm": 2084,
      "Ġ192": 2085,
      "ire": 2086,
      "Ġinten": 2087,
      "Ġaface": 2088,
      "Ġobie": 2089,
      "ĠBra": 2090,
      "ĠtÃ¢r": 2091,
      "ziu": 2092,
      "ĠCo": 2093,
      "Ġiub": 2094,
      "ĠfuncÈĽion": 2095,
      "Ġscrie": 2096,
      "ĠsfÃ¢rÈĻ": 2097,
      "Ġpana": 2098,
      "Ġplan": 2099,
      "11": 2100,
      "Ġimportant": 2101,
      "Ġanii": 2102,
      "rarea": 2103,
      "rici": 2104,
      "ital": 2105,
      "Ġfeme": 2106,
      "Ġsprij": 2107,
      "fa": 2108,
      "amb": 2109,
      "Ġsocie": 2110,
      "Ġvari": 2111,
      "ĠSa": 2112,
      "ĠCor": 2113,
      "zii": 2114,
      "Ġrecom": 2115,
      "melor": 2116,
      "alt": 2117,
      "Ġcomunic": 2118,
      "ĠaÈĻte": 2119,
      "babil": 2120,
      "ĠrÄĥmÃ¢n": 2121,
      "ĠbunÄĥ": 2122,
      "Ġdeoarece": 2123,
      "ĠCluj": 2124,
      "ĠrÃ¢": 2125,
      "ĠÃ®nvÄĥ": 2126,
      "zare": 2127,
      "Ġvoi": 2128,
      "Ġsca": 2129,
      "stat": 2130,
      "entul": 2131,
      "olului": 2132,
      "Ġmembru": 2133,
      "telor": 2134,
      "ĠMai": 2135,
      "ins": 2136,
      "The": 2137,
      "Ġfara": 2138,
      "Ġcump": 2139,
      "ĠCur": 2140,
      "Ġacestei": 2141,
      "olae": 2142,
      "mii": 2143,
      "icul": 2144,
      "ache": 2145,
      "Ġrecun": 2146,
      "Ġcred": 2147,
      "Ġinclu": 2148,
      "Ġ25": 2149,
      "ry": 2150,
      "Ġcrit": 2151,
      "ĠConsili": 2152,
      "Ġ100": 2153,
      "Ġpove": 2154,
      "Ġdatori": 2155,
      "inÈĽa": 2156,
      "Ġdomn": 2157,
      "ĠÃ®ntÃ¢mp": 2158,
      "Ġfir": 2159,
      "oaÈĻte": 2160,
      "ĠRomania": 2161,
      "Ġ24": 2162,
      "Ġsunte": 2163,
      "Ġnoastre": 2164,
      "Ġacces": 2165,
      "Ġinclusiv": 2166,
      "Ġvie": 2167,
      "ĠAcea": 2168,
      "Ġnimic": 2169,
      "ama": 2170,
      "alitate": 2171,
      "Ġ11": 2172,
      "Ġsupra": 2173,
      "ĠFe": 2174,
      "gerea": 2175,
      "ĠaratÄĥ": 2176,
      "Ġsat": 2177,
      "oca": 2178,
      "Ġservici": 2179,
      "ĠscÄĥ": 2180,
      "ĠTru": 2181,
      "Ġfer": 2182,
      "Ġanti": 2183,
      "Ce": 2184,
      "Ġtermen": 2185,
      "fÄĥÈĻ": 2186,
      "eri": 2187,
      "cii": 2188,
      "Vezi": 2189,
      "Ġrespectiv": 2190,
      "Ġfiz": 2191,
      "uze": 2192,
      "imente": 2193,
      "itoare": 2194,
      "Ġsolu": 2195,
      "Ġpop": 2196,
      "Ġmine": 2197,
      "Ġtemp": 2198,
      "tt": 2199,
      "serv": 2200,
      "Ġenerg": 2201,
      "\".": 2202,
      "Ġspun": 2203,
      "ierea": 2204,
      "ĠBise": 2205,
      "ĠRomÃ¢ne": 2206,
      "DE": 2207,
      "ĠlÃ¢ngÄĥ": 2208,
      "Ġprintre": 2209,
      "oe": 2210,
      "ĠavÃ¢nd": 2211,
      "itÄĥÈĽile": 2212,
      "Ġnumit": 2213,
      "ly": 2214,
      "orge": 2215,
      "Ġrepe": 2216,
      "Ġvom": 2217,
      "Ġaer": 2218,
      "Ġsuf": 2219,
      "ph": 2220,
      "rand": 2221,
      "fice": 2222,
      "ural": 2223,
      "zia": 2224,
      "ĠviaÈĽa": 2225,
      ".âĢĿ": 2226,
      "Ġ?": 2227,
      "Ġamerican": 2228,
      "ĠBu": 2229,
      "ÄĥtÄĥ": 2230,
      "Ġasc": 2231,
      "ĠÃ®nd": 2232,
      "Ġban": 2233,
      "eli": 2234,
      "Ġregul": 2235,
      "ultate": 2236,
      ");": 2237,
      "curs": 2238,
      "rice": 2239,
      "enilor": 2240,
      "ĠGuvern": 2241,
      "Ġnea": 2242,
      "Ġmotiv": 2243,
      "196": 2244,
      "Ġprez": 2245,
      "ang": 2246,
      "ive": 2247,
      "Ġprivi": 2248,
      "Ġtut": 2249,
      "Ġactu": 2250,
      "Ġcam": 2251,
      "aÈĽiilor": 2252,
      "ĠAs": 2253,
      "eau": 2254,
      "ĠadÄĥ": 2255,
      "Ġpolitici": 2256,
      "ÈĽelor": 2257,
      "Ġlimb": 2258,
      "Ġmani": 2259,
      "RE": 2260,
      "Ġmor": 2261,
      "Ġpreciz": 2262,
      "Din": 2263,
      "rului": 2264,
      "atie": 2265,
      "Ġdiscu": 2266,
      "Ġdia": 2267,
      "Ġoamenii": 2268,
      "turi": 2269,
      "Ġindep": 2270,
      "Ġren": 2271,
      "AN": 2272,
      "uta": 2273,
      "ĠIon": 2274,
      "ĠÃ®ng": 2275,
      "Ġextre": 2276,
      "Ġore": 2277,
      "ĠCre": 2278,
      "dam": 2279,
      "uite": 2280,
      "antin": 2281,
      "ila": 2282,
      "Ġnorm": 2283,
      "ban": 2284,
      "ĠdesfÄĥÈĻ": 2285,
      "ĠNaÈĽional": 2286,
      "ĠDacÄĥ": 2287,
      "Ġoficial": 2288,
      "Ġcit": 2289,
      "ĠlucrÄĥ": 2290,
      "Ġmij": 2291,
      "atorul": 2292,
      "ĠParlament": 2293,
      "gle": 2294,
      "ĠaltÄĥ": 2295,
      "ĠSÄĥ": 2296,
      "aris": 2297,
      "Ġzon": 2298,
      "Ġpag": 2299,
      "mane": 2300,
      "Ġoblig": 2301,
      "cri": 2302,
      "iet": 2303,
      "ĠEn": 2304,
      "stru": 2305,
      "ĠÐ": 2306,
      "ĠDo": 2307,
      "....": 2308,
      "sesc": 2309,
      "ĠtoÈĽi": 2310,
      "Ġaprop": 2311,
      "nit": 2312,
      "Ġze": 2313,
      "riei": 2314,
      "eze": 2315,
      "Ġplus": 2316,
      "utat": 2317,
      "ĠanunÈĽat": 2318,
      "ĠcÄĥl": 2319,
      "Ġ2008": 2320,
      "int": 2321,
      "Ġmea": 2322,
      "siune": 2323,
      "ÈĽiilor": 2324,
      "Ġtrece": 2325,
      "ome": 2326,
      "Ġexi": 2327,
      "ĠTot": 2328,
      "Ġsucces": 2329,
      "Ġtu": 2330,
      "Ġdori": 2331,
      "atoare": 2332,
      "Ġimplic": 2333,
      "iaÈĽa": 2334,
      "ka": 2335,
      "Ġdos": 2336,
      "heor": 2337,
      "ĠMun": 2338,
      "ieri": 2339,
      "ilÄĥ": 2340,
      "fon": 2341,
      "Ġsolic": 2342,
      "Ġparlament": 2343,
      "Ġonline": 2344,
      "Ġinflu": 2345,
      "dei": 2346,
      "cia": 2347,
      "rupe": 2348,
      "Ġinvesti": 2349,
      "Ġpozi": 2350,
      "ĠÂ": 2351,
      "ÈĽului": 2352,
      "ĠtÄĥ": 2353,
      "Ġdiver": 2354,
      "TI": 2355,
      "Ġindust": 2356,
      "cer": 2357,
      "son": 2358,
      "Ġdintr": 2359,
      "get": 2360,
      "St": 2361,
      "oÈĻi": 2362,
      "TE": 2363,
      "Ex": 2364,
      "ĠfuncÈĽie": 2365,
      "Ġprom": 2366,
      "Ã¼": 2367,
      "Ġ50": 2368,
      "Ġefectu": 2369,
      "Cu": 2370,
      "Ġcuprin": 2371,
      "ational": 2372,
      "gre": 2373,
      "Ġcontro": 2374,
      "Ġdore": 2375,
      "Hr": 2376,
      "Ġhot": 2377,
      "DupÄĥ": 2378,
      "inta": 2379,
      "Ġunivers": 2380,
      "mas": 2381,
      "Ġciv": 2382,
      "ĠBa": 2383,
      "mente": 2384,
      "arului": 2385,
      "mÃ¢nt": 2386,
      "Ġdra": 2387,
      "Ġperso": 2388,
      "ĠÃ®ncer": 2389,
      "pres": 2390,
      "ĠLi": 2391,
      "ĠAf": 2392,
      "Ġpublice": 2393,
      "Ġjum": 2394,
      "Ġbucu": 2395,
      "Ġfotbal": 2396,
      "Ġcurs": 2397,
      "Ġcost": 2398,
      "ĠDan": 2399,
      "Ã¢ntul": 2400,
      "ismul": 2401,
      "Ġtit": 2402,
      "otrivit": 2403,
      "urale": 2404,
      "Ġajunge": 2405,
      "Ace": 2406,
      "anÈĽi": 2407,
      "cese": 2408,
      "Ġmomentul": 2409,
      ".,": 2410,
      "Ġconsum": 2411,
      "ĠTrans": 2412,
      "sterul": 2413,
      "Ġdeose": 2414,
      "ach": 2415,
      "enti": 2416,
      "Ġnostru": 2417,
      "Ġsex": 2418,
      "ĠIaÈĻi": 2419,
      "Ġach": 2420,
      "ĠreprezintÄĥ": 2421,
      "ĠnouÄĥ": 2422,
      "Ġcandi": 2423,
      "ctive": 2424,
      "Ġadop": 2425,
      "nu": 2426,
      "ĠperioadÄĥ": 2427,
      "vers": 2428,
      "cadem": 2429,
      "ĠfacÄĥ": 2430,
      "ĠadevÄĥr": 2431,
      "ĠbÄĥr": 2432,
      "ĠSch": 2433,
      "Ġclas": 2434,
      "Bibli": 2435,
      "ens": 2436,
      "Ġstatului": 2437,
      "Ġparti": 2438,
      "Ġlemn": 2439,
      "datÄĥ": 2440,
      "Ġfra": 2441,
      "24": 2442,
      "gu": 2443,
      "Rom": 2444,
      "Ġmajoritatea": 2445,
      "Ġgl": 2446,
      "ĠoraÈĻului": 2447,
      "don": 2448,
      "ĠGermania": 2449,
      "ĠmaÈĻ": 2450,
      "ilv": 2451,
      "ĠnumÄĥrul": 2452,
      "Ġmas": 2453,
      "arde": 2454,
      "Ġexplic": 2455,
      "ĠsusÈĽine": 2456,
      "Ġfata": 2457,
      "ros": 2458,
      "mnÄĥ": 2459,
      "ocuri": 2460,
      "Ġvorba": 2461,
      "Ġfolosit": 2462,
      "Ist": 2463,
      "Ġnivelul": 2464,
      "ork": 2465,
      "oti": 2466,
      "ĠPol": 2467,
      "ricii": 2468,
      "Ġanaliz": 2469,
      "unilor": 2470,
      "garia": 2471,
      "Ġrespect": 2472,
      "oÈĽi": 2473,
      "Ġbune": 2474,
      "mea": 2475,
      "gere": 2476,
      "Ġiz": 2477,
      "Ġit": 2478,
      "ĠcetÄĥ": 2479,
      "imp": 2480,
      "orilor": 2481,
      "ier": 2482,
      "Ġprobabil": 2483,
      "zon": 2484,
      "entÄĥ": 2485,
      "ck": 2486,
      "Ġ...": 2487,
      "Ġnumer": 2488,
      "ducere": 2489,
      "Ġpolitic": 2490,
      "Ġdure": 2491,
      "Ġprieten": 2492,
      "oanele": 2493,
      "cel": 2494,
      "ĠtÃ¢rziu": 2495,
      "alitatea": 2496,
      "rom": 2497,
      "Ġurmare": 2498,
      "ĠEle": 2499,
      "ĠastÄĥzi": 2500,
      "ĠCent": 2501,
      "ĠIS": 2502,
      "lad": 2503,
      "alen": 2504,
      "Ġfilm": 2505,
      "pta": 2506,
      "Ġdoilea": 2507,
      "stra": 2508,
      "uror": 2509,
      "Am": 2510,
      "Ġstra": 2511,
      "ĠComis": 2512,
      "ĠNicolae": 2513,
      "Ġprobleme": 2514,
      "ĠPÄĥ": 2515,
      "tÄĥÈĽile": 2516,
      "inea": 2517,
      "Ġsar": 2518,
      "ocia": 2519,
      "ĠBÄĥ": 2520,
      "OR": 2521,
      "hai": 2522,
      "Ne": 2523,
      "Ġ2007": 2524,
      "ĠTrump": 2525,
      "ĠoraÈĻul": 2526,
      "Ġdenum": 2527,
      "alea": 2528,
      "Ã£": 2529,
      "ĠTV": 2530,
      "Este": 2531,
      "Ġrecomand": 2532,
      "tro": 2533,
      "Ġeduc": 2534,
      "Ġanim": 2535,
      "alist": 2536,
      "ĠÃ®nceputul": 2537,
      "ĠSte": 2538,
      "ÈĽionat": 2539,
      "Ġafl": 2540,
      "ĠsfÃ¢rÈĻitul": 2541,
      "Ġdeter": 2542,
      "Ġsatul": 2543,
      "ĠCri": 2544,
      "ĠMarea": 2545,
      "ĠspaÈĽi": 2546,
      "Ġii": 2547,
      "Ġdistru": 2548,
      "Ġatac": 2549,
      "atia": 2550,
      "Ġtuturor": 2551,
      "Ġstil": 2552,
      "Ġcondus": 2553,
      "Ġpolitice": 2554,
      "zie": 2555,
      "rig": 2556,
      "icei": 2557,
      "Ġprivire": 2558,
      "zit": 2559,
      "Ġcapit": 2560,
      "Ġmaxim": 2561,
      "IC": 2562,
      "ber": 2563,
      "Ġduce": 2564,
      "Ġapare": 2565,
      "Ġjurul": 2566,
      "oarele": 2567,
      "Ġ22": 2568,
      "ĠstÄĥ": 2569,
      "ĠpoliticÄĥ": 2570,
      "lia": 2571,
      "rian": 2572,
      "ĠAcadem": 2573,
      "Ġintro": 2574,
      "Ġ2011": 2575,
      "curitate": 2576,
      "Ġprive": 2577,
      "Ġmulti": 2578,
      "Ġpropri": 2579,
      "Ġcunoscut": 2580,
      "Ġturi": 2581,
      "ctele": 2582,
      "Ġjoc": 2583,
      "heorghe": 2584,
      "ĠÃ®ns": 2585,
      "Ġintele": 2586,
      "sch": 2587,
      "Ġafla": 2588,
      "ĠtoatÄĥ": 2589,
      "Ġvorb": 2590,
      "abor": 2591,
      "ĠBe": 2592,
      "pect": 2593,
      "Ġcalitate": 2594,
      "misi": 2595,
      "Ġsla": 2596,
      "Ġ2009": 2597,
      "Ġstruct": 2598,
      "rale": 2599,
      "alte": 2600,
      "Ġforma": 2601,
      "atea": 2602,
      "Ġabsol": 2603,
      "ĠBar": 2604,
      "Ġurmat": 2605,
      "Ġcinci": 2606,
      "ĠreuÈĻ": 2607,
      "Ġdomeniul": 2608,
      "ĠMari": 2609,
      "Ġorigin": 2610,
      "ĠÈĽÄĥri": 2611,
      "ĠinformaÈĽii": 2612,
      "//": 2613,
      "Ġjos": 2614,
      "Ġimportante": 2615,
      "Ġvechi": 2616,
      "ritan": 2617,
      "Ġcomuna": 2618,
      "Ġdeci": 2619,
      "Ġexista": 2620,
      "Limba": 2621,
      "Ġtex": 2622,
      "ĠÃİ": 2623,
      "ĠnaÈĽional": 2624,
      "Ġcompe": 2625,
      "Bibliografie": 2626,
      "Ġinfra": 2627,
      "Ġbol": 2628,
      "Ġcomb": 2629,
      "ĠAt": 2630,
      "Ġsistem": 2631,
      "Ġmer": 2632,
      "itorul": 2633,
      "odul": 2634,
      "ohann": 2635,
      "leg": 2636,
      "ÈĽional": 2637,
      "ima": 2638,
      "ĠromÃ¢nÄĥ": 2639,
      "ĠmiÈĻ": 2640,
      "Ġvide": 2641,
      "stic": 2642,
      "Ġfacut": 2643,
      "aj": 2644,
      "Ġacestuia": 2645,
      "book": 2646,
      "ula": 2647,
      "Ġlun": 2648,
      "ativÄĥ": 2649,
      "seamnÄĥ": 2650,
      "Äĥtorii": 2651,
      "Ġmodific": 2652,
      "unde": 2653,
      "ĠAcest": 2654,
      "Ġmesa": 2655,
      "Ġacestor": 2656,
      "Decese": 2657,
      "ĠÃ®ncepe": 2658,
      "Ġconstr": 2659,
      "Ġrapid": 2660,
      "ĠÃ®ndep": 2661,
      "Ġengle": 2662,
      "Ġbe": 2663,
      "Ġsprijin": 2664,
      "Ġeli": 2665,
      "ĠIoan": 2666,
      "ovi": 2667,
      "Ġbl": 2668,
      "Ġlegis": 2669,
      "Ġexisten": 2670,
      "ÈĻt": 2671,
      "Ġserie": 2672,
      "Ġdus": 2673,
      "UL": 2674,
      "Ġdrum": 2675,
      "ĠSu": 2676,
      "Ġacestora": 2677,
      "itare": 2678,
      "Ġtransport": 2679,
      "inÈĽi": 2680,
      "hite": 2681,
      "Ġcateg": 2682,
      "ĠnoastrÄĥ": 2683,
      "onsa": 2684,
      "IN": 2685,
      "sih": 2686,
      "Ġport": 2687,
      "Ġrep": 2688,
      "194": 2689,
      "Ġsistemul": 2690,
      "Ġ[": 2691,
      "Ġechipa": 2692,
      "Ġconsid": 2693,
      "Ġ23": 2694,
      "Ġputem": 2695,
      "Ġteren": 2696,
      "Ġgar": 2697,
      "ttp": 2698,
      "Ġeurope": 2699,
      "atura": 2700,
      "carea": 2701,
      "Ã¶": 2702,
      "ĠalÄĥturi": 2703,
      "Ġamen": 2704,
      "arta": 2705,
      "ĠÃ®nseamnÄĥ": 2706,
      "Ġdecat": 2707,
      "://": 2708,
      "ĠmÃ¢n": 2709,
      "Ġcompon": 2710,
      "atei": 2711,
      "raj": 2712,
      "ĠPN": 2713,
      "net": 2714,
      "ÄĥrÄĥ": 2715,
      "Ġtermin": 2716,
      "Ġcla": 2717,
      "semn": 2718,
      "Ġpetre": 2719,
      "Ġefe": 2720,
      "Prin": 2721,
      "Ġha": 2722,
      "tod": 2723,
      "aturi": 2724,
      "gine": 2725,
      "Ġga": 2726,
      "dar": 2727,
      "bili": 2728,
      "Ġlic": 2729,
      "Ã¢mb": 2730,
      "ĠNord": 2731,
      "Ġ2004": 2732,
      "Ġdeschi": 2733,
      "cate": 2734,
      "Ġman": 2735,
      "Ġpres": 2736,
      "ĠBel": 2737,
      "Ġ2010": 2738,
      "lori": 2739,
      "all": 2740,
      "inele": 2741,
      "izat": 2742,
      "ctor": 2743,
      "ĠVe": 2744,
      "Ð¾": 2745,
      "Ġluna": 2746,
      "ĠgrÄĥ": 2747,
      "Ġcore": 2748,
      "lement": 2749,
      "Ġadministrat": 2750,
      "25": 2751,
      "Ġproie": 2752,
      "ĠUS": 2753,
      "ÈĻul": 2754,
      "omat": 2755,
      "ĠGeorge": 2756,
      "Ġamp": 2757,
      "Ġsea": 2758,
      "ĠÃ®nfiin": 2759,
      "ĠPet": 2760,
      "siunea": 2761,
      "Ġ2000": 2762,
      "Ġbloc": 2763,
      "alului": 2764,
      "Ġtradi": 2765,
      "Ġrus": 2766,
      "sur": 2767,
      "Ġplat": 2768,
      "Ġmeu": 2769,
      "ĠJo": 2770,
      "Ġziua": 2771,
      "Ġretra": 2772,
      "Ġprelu": 2773,
      "Ġdreptul": 2774,
      "erb": 2775,
      "Ġparticip": 2776,
      "Ġcondam": 2777,
      "ski": 2778,
      "Ġfurn": 2779,
      "scul": 2780,
      "rafa": 2781,
      "Ġ2006": 2782,
      "Ġdove": 2783,
      "Ca": 2784,
      "ĠAust": 2785,
      "ĠCÄĥ": 2786,
      "Ġapa": 2787,
      "Ġpropune": 2788,
      "cre": 2789,
      "dul": 2790,
      "Ġcalcul": 2791,
      "ĠTra": 2792,
      "ensÄĥ": 2793,
      "Ġedi": 2794,
      "ĠsÄĥn": 2795,
      "Ġtelev": 2796,
      "Ġprel": 2797,
      "Ġgrat": 2798,
      "Ġcapac": 2799,
      "ĠÈĽin": 2800,
      "buie": 2801,
      "ĠpÄĥst": 2802,
      "ĠXX": 2803,
      "Ġbar": 2804,
      "selor": 2805,
      "ela": 2806,
      "ĠdeÈĻi": 2807,
      "Ġobicei": 2808,
      "isi": 2809,
      "Ġ26": 2810,
      "AL": 2811,
      "Ġminute": 2812,
      "cursul": 2813,
      "ĠParis": 2814,
      "Ġobserv": 2815,
      "Ġjusti": 2816,
      "ologia": 2817,
      "ĠÃ®ncÃ¢t": 2818,
      "ity": 2819,
      "ĠÃ®ntÃ¢lni": 2820,
      "resa": 2821,
      "ÄĥturÄĥ": 2822,
      "Ġvreme": 2823,
      "Ġ28": 2824,
      "ĠÃ®ntrea": 2825,
      "Ġfund": 2826,
      "Ġdeschis": 2827,
      "Ġgreu": 2828,
      "antul": 2829,
      "lini": 2830,
      "Ġins": 2831,
      "uirea": 2832,
      "rael": 2833,
      "Ġinteri": 2834,
      "Ġbaz": 2835,
      "Ġsimplu": 2836,
      "fan": 2837,
      "ĠÃ®nchis": 2838,
      "Ġfinanci": 2839,
      "Ġindi": 2840,
      "ĠLiv": 2841,
      "ĠTimiÈĻ": 2842,
      "ÈĻtia": 2843,
      "uale": 2844,
      "ĠadÄĥug": 2845,
      "Te": 2846,
      "Ġbenefic": 2847,
      "ĠurmÄĥtoare": 2848,
      "Ġ21": 2849,
      "ĠarÄĥ": 2850,
      "ĠIntern": 2851,
      "ĠformÄĥ": 2852,
      "inat": 2853,
      "van": 2854,
      "arh": 2855,
      "Ġafaceri": 2856,
      "izarea": 2857,
      "Ġbritan": 2858,
      "ĠTur": 2859,
      "dicÄĥ": 2860,
      "cle": 2861,
      "Ġseri": 2862,
      "eam": 2863,
      "uma": 2864,
      "aliÈĻti": 2865,
      "ĠsusÈĽin": 2866,
      "Ġoric": 2867,
      "Ġraport": 2868,
      "Ġatra": 2869,
      "ÈĻedintele": 2870,
      "Ġexc": 2871,
      "Ġlar": 2872,
      "Ġpromov": 2873,
      "Ġprost": 2874,
      "Ġevid": 2875,
      "tis": 2876,
      "Ġterm": 2877,
      "Ġdocument": 2878,
      "oasa": 2879,
      "Ġime": 2880,
      "22": 2881,
      "Ġmana": 2882,
      "Ġinteg": 2883,
      "ĠÈĽÄĥrii": 2884,
      "stice": 2885,
      "Ġlid": 2886,
      "Ġlocale": 2887,
      "195": 2888,
      "seÈĻte": 2889,
      "Ġextrem": 2890,
      "Ġ2012": 2891,
      "ĠStatele": 2892,
      "Ġpici": 2893,
      "Ġtab": 2894,
      "spi": 2895,
      "Ġes": 2896,
      "ĠpregÄĥ": 2897,
      "Ġfron": 2898,
      "ĠAlexandru": 2899,
      "Ġpierd": 2900,
      "ws": 2901,
      "nific": 2902,
      "Ġmand": 2903,
      "oste": 2904,
      "aÈĽilor": 2905,
      "rani": 2906,
      "ĠItal": 2907,
      "Ġdirec": 2908,
      "Ġ2018": 2909,
      "Ġmot": 2910,
      "ĠcetÄĥÈĽ": 2911,
      "Ġcant": 2912,
      "Ġefici": 2913,
      "Ġjuri": 2914,
      "ĠâĢĶ": 2915,
      "Ġeuropene": 2916,
      "ĠLu": 2917,
      "ĠAstfel": 2918,
      "ocrat": 2919,
      "lÄĥdi": 2920,
      "raÈĽi": 2921,
      "Ġcontrol": 2922,
      "ota": 2923,
      "her": 2924,
      "Si": 2925,
      "Ġspect": 2926,
      "Ġ190": 2927,
      "Ġsingur": 2928,
      "Ġrezi": 2929,
      "Ġtotal": 2930,
      "Ġdesi": 2931,
      "Ġprintr": 2932,
      "Ġagen": 2933,
      "Ġveri": 2934,
      "Ġinterpre": 2935,
      "ĠdÄĥ": 2936,
      "urit": 2937,
      "ismului": 2938,
      "Ġtotul": 2939,
      "ĠDomn": 2940,
      "Ġantre": 2941,
      "Ġsocial": 2942,
      "Ġpermite": 2943,
      "ĠPartid": 2944,
      "Ġregiunea": 2945,
      "rateg": 2946,
      "Ġsuntem": 2947,
      "Äĥtorul": 2948,
      "ureÈĻ": 2949,
      "Ġcatre": 2950,
      "Ġaliment": 2951,
      "Ġ27": 2952,
      "Ġresponsa": 2953,
      "ain": 2954,
      "pul": 2955,
      "Ġrezult": 2956,
      "ght": 2957,
      "Ġort": 2958,
      "Ġlan": 2959,
      "elt": 2960,
      "ĠRepublica": 2961,
      "bra": 2962,
      "Ġrezultate": 2963,
      "ĠjumÄĥtate": 2964,
      "har": 2965,
      "mon": 2966,
      "uda": 2967,
      "ĠLeg": 2968,
      "Ġbo": 2969,
      "ĠJude": 2970,
      "Ġsuperi": 2971,
      "Ġisi": 2972,
      "Ġindepen": 2973,
      "Ġdol": 2974,
      "Ġech": 2975,
      "ohannis": 2976,
      "BN": 2977,
      "ĠXV": 2978,
      "Ġsupl": 2979,
      "ÈĽea": 2980,
      "stan": 2981,
      "bun": 2982,
      "raÈĽia": 2983,
      "Ġprincipal": 2984,
      "iilor": 2985,
      "ki": 2986,
      "ĠUr": 2987,
      "Ġ2005": 2988,
      "ĠvÃ¢n": 2989,
      "omet": 2990,
      "Ġvede": 2991,
      "Pri": 2992,
      "Ġalegerile": 2993,
      "Ġajuta": 2994,
      "ologice": 2995,
      "Ġdestin": 2996,
      "Ġprimele": 2997,
      "Ġ40": 2998,
      "Ġrol": 2999,
      "ĠcÄĥs": 3000,
      "ĠBan": 3001,
      "Ġcaracteri": 3002,
      "cÈĽii": 3003,
      "CO": 3004,
      "ĠCol": 3005,
      "AS": 3006,
      "Ġ&": 3007,
      "Ġnoa": 3008,
      "ĠCap": 3009,
      "%),": 3010,
      "Ġfamilie": 3011,
      "oul": 3012,
      "Ġaduce": 3013,
      "Ġelim": 3014,
      "Ġcolabor": 3015,
      "ĠaceeaÈĻi": 3016,
      "Ġjurn": 3017,
      "Ġrezol": 3018,
      "Ġdeparte": 3019,
      "ĠvÄĥzut": 3020,
      "Ġmijloc": 3021,
      "Ġalta": 3022,
      "Ġformat": 3023,
      "Ġdrag": 3024,
      "Ġcomplet": 3025,
      "reze": 3026,
      "ĠpÄĥrin": 3027,
      "Ġmodul": 3028,
      "ĠMosc": 3029,
      "ĠreuÈĻit": 3030,
      "ong": 3031,
      "ÈĻii": 3032,
      "Ġactivitatea": 3033,
      "bilitate": 3034,
      "ĠAnii": 3035,
      "val": 3036,
      "Ġpunc": 3037,
      "ogra": 3038,
      "ĠMÄĥ": 3039,
      "ordon": 3040,
      "ĠoferÄĥ": 3041,
      "Ad": 3042,
      "Ġinca": 3043,
      "23": 3044,
      "Ġcoa": 3045,
      "gele": 3046,
      "Ġ2016": 3047,
      "asile": 3048,
      "ralÄĥ": 3049,
      "acebook": 3050,
      "ff": 3051,
      "ĠConstantin": 3052,
      "Ġindiv": 3053,
      "Ġmeci": 3054,
      "Ġreac": 3055,
      "ĠDE": 3056,
      "Ġcredin": 3057,
      "ÄĤ": 3058,
      "Ġcorect": 3059,
      "Ġpas": 3060,
      "www": 3061,
      "60": 3062,
      "sim": 3063,
      "Ġbuc": 3064,
      "Ġpict": 3065,
      "Ġevolu": 3066,
      "Ġitali": 3067,
      "Ġordin": 3068,
      "Ġmanife": 3069,
      "Ð°": 3070,
      "Ġdea": 3071,
      "ĠAu": 3072,
      "Ġconsili": 3073,
      "rem": 3074,
      "Ġmiliarde": 3075,
      "ĠÈĻef": 3076,
      "80": 3077,
      "ĠFranÈĽa": 3078,
      "ozit": 3079,
      "licÄĥ": 3080,
      "alog": 3081,
      "Ġ2014": 3082,
      "Ġajutorul": 3083,
      "ĠuÈĻor": 3084,
      "Ġservicii": 3085,
      "Ġlansat": 3086,
      "Ġclar": 3087,
      "Ġfrec": 3088,
      "Ġofer": 3089,
      "uÈĽi": 3090,
      "ÈĽarea": 3091,
      "Ġmit": 3092,
      "Ġsecolului": 3093,
      "Ġregim": 3094,
      "gul": 3095,
      "ĠrÄĥmas": 3096,
      "ĠRÄĥzboi": 3097,
      "onale": 3098,
      "40": 3099,
      "osi": 3100,
      "Ġaflat": 3101,
      "Ġsufle": 3102,
      "rÄĥrii": 3103,
      "Ġcontract": 3104,
      "Ġata": 3105,
      "iev": 3106,
      "Ġconduc": 3107,
      "Ġatat": 3108,
      "ed": 3109,
      "tÄĥt": 3110,
      "ĠGheorghe": 3111,
      "Ġtrupe": 3112,
      "Ġrest": 3113,
      "ĠTransilv": 3114,
      "21": 3115,
      "teaza": 3116,
      "ple": 3117,
      "ĠNaÈĽionalÄĥ": 3118,
      "ĠBer": 3119,
      "Ġputere": 3120,
      "ĠRusiei": 3121,
      "nÄĥsti": 3122,
      "itar": 3123,
      "atorilor": 3124,
      "Bise": 3125,
      "scri": 3126,
      "ĠPremi": 3127,
      "do": 3128,
      "Ġtax": 3129,
      "deri": 3130,
      "ĠXI": 3131,
      "land": 3132,
      "Äĥn": 3133,
      "utin": 3134,
      "ĠMic": 3135,
      "Ġfaci": 3136,
      "Ġdecis": 3137,
      "ĠVict": 3138,
      "ĠPNL": 3139,
      "Ġiden": 3140,
      "Ġstatul": 3141,
      "ĠCer": 3142,
      "DacÄĥ": 3143,
      "Ġnumeroase": 3144,
      "reu": 3145,
      "ĠCum": 3146,
      "ovei": 3147,
      "Ġpsih": 3148,
      "EN": 3149,
      "Äĥrile": 3150,
      "otul": 3151,
      "alizare": 3152,
      "Ġextra": 3153,
      "RÃ¢": 3154,
      "Ġscurt": 3155,
      "Ã³": 3156,
      "Ġputin": 3157,
      "ĠobÈĽine": 3158,
      "Ġspi": 3159,
      "vent": 3160,
      "ferinÈĽe": 3161,
      "ÈĻit": 3162,
      "Ġfoc": 3163,
      "Ã¢l": 3164,
      "ĠBi": 3165,
      "ĠrÄĥspuns": 3166,
      "ĠaÈĻe": 3167,
      "RO": 3168,
      "Ġdoc": 3169,
      "Ġnor": 3170,
      "Ġunii": 3171,
      "Ġperic": 3172,
      "Ġdestul": 3173,
      "ĠIm": 3174,
      "Ġmerge": 3175,
      "Ġoca": 3176,
      "Ġadus": 3177,
      "ĠcunoaÈĻte": 3178,
      "ĠEuropean": 3179,
      "ĠrÄĥmÃ¢ne": 3180,
      "iul": 3181,
      "Ġeta": 3182,
      "ATO": 3183,
      "Ġincep": 3184,
      "Ġvaloare": 3185,
      "ĠStat": 3186,
      "ocat": 3187,
      "ĠHar": 3188,
      "Ġinsul": 3189,
      "ĠVlad": 3190,
      "Ġdevine": 3191,
      "Ġcondamn": 3192,
      "Ġune": 3193,
      "Ġtransform": 3194,
      "ĠBo": 3195,
      "izare": 3196,
      "scrie": 3197,
      "Ġprogram": 3198,
      "Ġrealizat": 3199,
      "Ġeveniment": 3200,
      "ĠmuncÄĥ": 3201,
      "ĠMinisterul": 3202,
      "okie": 3203,
      "indu": 3204,
      "Ġechipe": 3205,
      "Ġdiverse": 3206,
      "rog": 3207,
      "Ġanumite": 3208,
      "ĠQ": 3209,
      "Ġbog": 3210,
      "tari": 3211,
      "III": 3212,
      "Ġfab": 3213,
      "ld": 3214,
      "que": 3215,
      "Ġpaci": 3216,
      "ĠLib": 3217,
      "Ġscen": 3218,
      "Ġviata": 3219,
      "ĠÈĽara": 3220,
      "Ðµ": 3221,
      "Ġhi": 3222,
      "Ġintere": 3223,
      "Ġame": 3224,
      "ft": 3225,
      "Ġintrat": 3226,
      "denÈĽi": 3227,
      "ocie": 3228,
      "??": 3229,
      "stian": 3230,
      "ologic": 3231,
      "ĠPop": 3232,
      "AC": 3233,
      "ĠmÄĥr": 3234,
      "Ġvest": 3235,
      "Ġinterme": 3236,
      "Ġcomand": 3237,
      "ĠSh": 3238,
      "istat": 3239,
      "Ġafara": 3240,
      "ĠOp": 3241,
      "Ġteritoriul": 3242,
      "Ġsemnific": 3243,
      "arilor": 3244,
      "Ġsin": 3245,
      "Ġliv": 3246,
      "inii": 3247,
      "Ġpere": 3248,
      "ĠÈĻco": 3249,
      "Ġmoder": 3250,
      "chii": 3251,
      "Ġpoe": 3252,
      "Ġruse": 3253,
      "ĠfuncÈĽia": 3254,
      "mÃ¢ntului": 3255,
      "Ġvac": 3256,
      "tÄĥri": 3257,
      "Ġsuprafa": 3258,
      "ĠISBN": 3259,
      "Ġcoment": 3260,
      "Ġspec": 3261,
      "Ġazi": 3262,
      "ĠsÄĥi": 3263,
      "Ġ189": 3264,
      "Ġiti": 3265,
      "Ġtara": 3266,
      "ratÄĥ": 3267,
      "Ġsupliment": 3268,
      "ĠapÄĥrut": 3269,
      "ters": 3270,
      "ĠgÃ¢nd": 3271,
      "Ġlov": 3272,
      "27": 3273,
      "rad": 3274,
      "ÈĽionale": 3275,
      "Ġoferi": 3276,
      "Ġcircul": 3277,
      "site": 3278,
      "Ġlocuri": 3279,
      "Ġmii": 3280,
      "raÈĽie": 3281,
      "cent": 3282,
      "anÈĽii": 3283,
      "osc": 3284,
      "Ġputut": 3285,
      "mÃ¢ntul": 3286,
      "gii": 3287,
      "ĠMihai": 3288,
      "Ġdemon": 3289,
      "Ġmini": 3290,
      "utate": 3291,
      "Äĥscut": 3292,
      "ĠIII": 3293,
      "Ġec": 3294,
      "rus": 3295,
      "Ġstand": 3296,
      "ĠUniunii": 3297,
      "CR": 3298,
      "ĠdatoritÄĥ": 3299,
      "var": 3300,
      "Ġfamilia": 3301,
      "ĠpreÈĽ": 3302,
      "ĠSud": 3303,
      "Ġy": 3304,
      "fort": 3305,
      "ĠÃ®ÈĽi": 3306,
      "Ġvedea": 3307,
      "Ġvorbe": 3308,
      "iscop": 3309,
      "Ġtransmis": 3310,
      "ĠÃ®ntreb": 3311,
      "Ġpreve": 3312,
      "Ġucrain": 3313,
      "Ġ=": 3314,
      "ĠApe": 3315,
      "Ġ2019": 3316,
      "ĠSunt": 3317,
      "Ġinsa": 3318,
      "omin": 3319,
      "Ġvei": 3320,
      "Ġasigur": 3321,
      "Ġmonum": 3322,
      "ĠbazÄĥ": 3323,
      "Ġortod": 3324,
      "Ġdetermin": 3325,
      "scut": 3326,
      "ĠAmeric": 3327,
      "Ġsalari": 3328,
      "ĠlÄĥ": 3329,
      "ES": 3330,
      "ĠIohannis": 3331,
      "Ġtrimis": 3332,
      "Ġmaga": 3333,
      "ĠAng": 3334,
      "umb": 3335,
      "Ġcerut": 3336,
      "ĠEd": 3337,
      "deauna": 3338,
      "Ġstate": 3339,
      "Ġsecuritate": 3340,
      "ĠTh": 3341,
      "Ġdolari": 3342,
      "Ġcasa": 3343,
      "Ġconfir": 3344,
      "ah": 3345,
      "Ġbuna": 3346,
      "Ġdeb": 3347,
      "Ġafect": 3348,
      "ĠGener": 3349,
      "inde": 3350,
      "ÈĽatÄĥ": 3351,
      "Ġhe": 3352,
      "Ġsociale": 3353,
      "ĠapÄĥr": 3354,
      "Ġ29": 3355,
      "otel": 3356,
      "Ġcomunei": 3357,
      "ĠCra": 3358,
      "ĠSim": 3359,
      "ĠEm": 3360,
      "giu": 3361,
      "zarea": 3362,
      "Ġpublicat": 3363,
      "Ġlungul": 3364,
      "Ġdor": 3365,
      "Ġvite": 3366,
      "Ġ2017": 3367,
      "icipi": 3368,
      "ÈĻtri": 3369,
      "Ġmedie": 3370,
      "org": 3371,
      "ĠFin": 3372,
      "ano": 3373,
      "oziÈĽie": 3374,
      "iat": 3375,
      "ĠclÄĥdi": 3376,
      "veni": 3377,
      "Ġ)": 3378,
      "genÈĽÄĥ": 3379,
      "28": 3380,
      "Par": 3381,
      "Ġimpre": 3382,
      "Ġlucruri": 3383,
      "chet": 3384,
      "ĠcÃ¢ÈĻtigat": 3385,
      "olen": 3386,
      "ĠPat": 3387,
      "ĠprimÄĥ": 3388,
      "alizat": 3389,
      "Ġocup": 3390,
      "relor": 3391,
      "ĠpublicÄĥ": 3392,
      "Potrivit": 3393,
      "Ġdefin": 3394,
      "Ġenergie": 3395,
      "ficat": 3396,
      "Ġexact": 3397,
      "ĠCel": 3398,
      "Ġstare": 3399,
      "Ġtelefon": 3400,
      "hitect": 3401,
      "erului": 3402,
      "Ġcontex": 3403,
      "ĠMaria": 3404,
      "Ġmus": 3405,
      "Ġcineva": 3406,
      "siv": 3407,
      "Ġconflic": 3408,
      "Ġcru": 3409,
      "Ġnep": 3410,
      "Ġapari": 3411,
      "Ġniciun": 3412,
      "ĠsÃ¢n": 3413,
      "ĠrecensÄĥ": 3414,
      "Ġmurit": 3415,
      "Ġcomerci": 3416,
      "Ġadresa": 3417,
      "Ġfinal": 3418,
      "Ġsens": 3419,
      "mail": 3420,
      "Ġpartene": 3421,
      "Ġ2013": 3422,
      "Ġtop": 3423,
      "ĠAut": 3424,
      "ĠsusÈĽinut": 3425,
      "ĠpriveÈĻte": 3426,
      "ĠConsiliului": 3427,
      "29": 3428,
      "ĠpoÈĽi": 3429,
      "Ġnimeni": 3430,
      "ĠÃ®nf": 3431,
      "Ġcomis": 3432,
      "Ġafe": 3433,
      "ĠGal": 3434,
      "Ġlegisl": 3435,
      "itale": 3436,
      "--": 3437,
      "ĠSc": 3438,
      "Ġtemperat": 3439,
      "Ġstrateg": 3440,
      "itudin": 3441,
      "ĠUcrainei": 3442,
      "El": 3443,
      "ĠAcesta": 3444,
      "Ġdiferen": 3445,
      "ĠEuropeanÄĥ": 3446,
      "ÈĻov": 3447,
      "Ð¸": 3448,
      "ĠTre": 3449,
      "curo": 3450,
      "Ġdef": 3451,
      "vat": 3452,
      "omen": 3453,
      "ĠAcademiei": 3454,
      "ĠPh": 3455,
      "Ġviitor": 3456,
      "Ġweb": 3457,
      "Mi": 3458,
      "Ġvizi": 3459,
      "ĠEuropene": 3460,
      "ĠUniversitatea": 3461,
      "Ġextin": 3462,
      "Ġconstitu": 3463,
      "Ġdezvoltarea": 3464,
      "Ġnicio": 3465,
      "imir": 3466,
      "US": 3467,
      "inile": 3468,
      "Ġdipl": 3469,
      "Ġaltfel": 3470,
      "ĠnÄĥscut": 3471,
      "Ġ2020": 3472,
      "red": 3473,
      "ÈĻu": 3474,
      "ĠBul": 3475,
      "Ġsusp": 3476,
      "Ġimediat": 3477,
      "voast": 3478,
      "derii": 3479,
      "ash": 3480,
      "ÄĥrÃ¢": 3481,
      "ĠMan": 3482,
      "rg": 3483,
      "Ġdescoperi": 3484,
      "Ġadau": 3485,
      "Ġaste": 3486,
      "ĠNATO": 3487,
      "oartea": 3488,
      "Ġcentrul": 3489,
      "oace": 3490,
      "Ġspirit": 3491,
      "ĠFor": 3492,
      "70": 3493,
      "Ġnoua": 3494,
      "reaza": 3495,
      "Ġnecesare": 3496,
      "vie": 3497,
      "rent": 3498,
      "Ġfurniz": 3499,
      "26": 3500,
      "Ġbanii": 3501,
      "Ġconse": 3502,
      "Ġlegate": 3503,
      "Ġministrul": 3504,
      "Car": 3505,
      "ĠNo": 3506,
      "ĠFacebook": 3507,
      "itati": 3508,
      "ĠrÃ¢ndul": 3509,
      "ĠniÈĻte": 3510,
      "ĠÈĻcol": 3511,
      "Ġpierdut": 3512,
      "Ġmed": 3513,
      "ĠniciodatÄĥ": 3514,
      "ER": 3515,
      "geri": 3516,
      "ĠÈĺte": 3517,
      "ĠluptÄĥ": 3518,
      "our": 3519,
      "Ġprime": 3520,
      "Ġmondial": 3521,
      "ĠDaca": 3522,
      "ĠobÈĽinut": 3523,
      "Ġpersona": 3524,
      "ĠmÄĥsurÄĥ": 3525,
      "Ġgaz": 3526,
      "ell": 3527,
      "Mai": 3528,
      "Ġultima": 3529,
      "Ġlat": 3530,
      "Ġexcep": 3531,
      "Cum": 3532,
      "ĠMondial": 3533,
      "Ġeg": 3534,
      "ON": 3535,
      "sau": 3536,
      "Ġchim": 3537,
      "Ġnucle": 3538,
      "tit": 3539,
      "Ġaccep": 3540,
      "Ġacoperi": 3541,
      "Ġ1990": 3542,
      "ĠcontinuÄĥ": 3543,
      "Ġlege": 3544,
      "Äĥrul": 3545,
      "Ġoc": 3546,
      "Ġcomplex": 3547,
      "Ġ2002": 3548,
      "Ġsov": 3549,
      "Ġmem": 3550,
      "ercuri": 3551,
      "ualÄĥ": 3552,
      "ĠTele": 3553,
      "Ġputernic": 3554,
      "Ġchelt": 3555,
      "ĠAv": 3556,
      "ĠIar": 3557,
      "inicÄĥ": 3558,
      "ĠBrit": 3559,
      "Ġacel": 3560,
      "IS": 3561,
      "ĠConstitu": 3562,
      "Or": 3563,
      "Ġprovin": 3564,
      "193": 3565,
      "neavoast": 3566,
      "reascÄĥ": 3567,
      "Ġred": 3568,
      "bate": 3569,
      "ĠDep": 3570,
      "stitutul": 3571,
      "Ġdrea": 3572,
      "Ġministru": 3573,
      "ĠbÄĥrb": 3574,
      "Ġasigura": 3575,
      "Ġagric": 3576,
      "Le": 3577,
      "Ġdur": 3578,
      "ocmai": 3579,
      "Ġcontinuare": 3580,
      "Ġindic": 3581,
      "Ġscop": 3582,
      "Ġinvit": 3583,
      "Èĺi": 3584,
      "78": 3585,
      "ino": 3586,
      "Ġate": 3587,
      "ĠIsrael": 3588,
      "Ġmilitare": 3589,
      "mna": 3590,
      "ĠÃ®ntreaga": 3591,
      "Ġfal": 3592,
      "ĠromÃ¢neÈĻti": 3593,
      "Ġrolul": 3594,
      "lect": 3595,
      "Ġling": 3596,
      "Ġsufici": 3597,
      "iazÄĥ": 3598,
      "Ġcompar": 3599,
      "pere": 3600,
      "sh": 3601,
      "ĠAceasta": 3602,
      "Ġpresup": 3603,
      "):": 3604,
      "amna": 3605,
      "ĠÃ®mpÄĥr": 3606,
      "iectul": 3607,
      "Ġbuge": 3608,
      "Ġdau": 3609,
      "Ġcarte": 3610,
      "ampion": 3611,
      "ĠÃ®ngrij": 3612,
      "ĠmicÄĥ": 3613,
      "Ġplace": 3614,
      "Ġistoria": 3615,
      "Ġaib": 3616,
      "Ġprimi": 3617,
      "operit": 3618,
      "ĠpresÄĥ": 3619,
      "ĠmarÈĽi": 3620,
      "Ġultimul": 3621,
      "Ġidentific": 3622,
      "ĠlÄĥs": 3623,
      "ĠMag": 3624,
      "ĠComp": 3625,
      "dan": 3626,
      "ÈĽean": 3627,
      "Ġinstal": 3628,
      "ĠVol": 3629,
      "Ġcopiii": 3630,
      "inist": 3631,
      "ĠMir": 3632,
      "ĠcomunÄĥ": 3633,
      "bilitatea": 3634,
      "ficare": 3635,
      "Ġfuse": 3636,
      "ĠFil": 3637,
      "Ġetn": 3638,
      "ĠImperi": 3639,
      "73": 3640,
      "ĠPutin": 3641,
      "aÈĻ": 3642,
      "ĠVasile": 3643,
      "ĠÈĺti": 3644,
      "ical": 3645,
      "ativa": 3646,
      "Ġcorup": 3647,
      "Ch": 3648,
      "lalte": 3649,
      "ĠcÄĥsÄĥtori": 3650,
      "Ġps": 3651,
      "ĠpÄĥrÈĽi": 3652,
      "Mar": 3653,
      "sticÄĥ": 3654,
      "Ġ60": 3655,
      "ith": 3656,
      "Ã¢ndi": 3657,
      "Ġaltele": 3658,
      "Ge": 3659,
      "ĠYork": 3660,
      "=\"": 3661,
      "Ġcontribu": 3662,
      "Ġproblema": 3663,
      "ĠÈĻase": 3664,
      "Ġistoric": 3665,
      "inti": 3666,
      "Ġ2003": 3667,
      "Ġconfe": 3668,
      "ĠRob": 3669,
      "Ġconstit": 3670,
      "Ġgol": 3671,
      "Dar": 3672,
      "ÈĽionalÄĥ": 3673,
      "Ġsper": 3674,
      "alia": 3675,
      "UR": 3676,
      "Ġpic": 3677,
      "oritate": 3678,
      "Ġsecret": 3679,
      "ĠvieÈĽii": 3680,
      "ĠItalia": 3681,
      "ĠDu": 3682,
      "udine": 3683,
      "ĠpopulaÈĽia": 3684,
      "Ġdumneavoast": 3685,
      "met": 3686,
      "Ġintra": 3687,
      "Ġulterior": 3688,
      "Ġvalori": 3689,
      "Ġvic": 3690,
      "ulescu": 3691,
      "ĠadicÄĥ": 3692,
      "ĠaibÄĥ": 3693,
      "Ġseama": 3694,
      "Ġcelui": 3695,
      "Ġmetri": 3696,
      "dez": 3697,
      "ligi": 3698,
      "enz": 3699,
      "sm": 3700,
      "Ġfemei": 3701,
      "Biserica": 3702,
      "Comp": 3703,
      "Ġdific": 3704,
      "Ġacce": 3705,
      "ptat": 3706,
      "Ġsimil": 3707,
      "Ġelector": 3708,
      "pri": 3709,
      "ĠArm": 3710,
      "ĠAc": 3711,
      "Äĥtoarea": 3712,
      "Ġinterven": 3713,
      "Ġafirmat": 3714,
      "ĠÃ®ncre": 3715,
      "Ġvideo": 3716,
      "ĠHe": 3717,
      "Ġmiercuri": 3718,
      "Ġtelevizi": 3719,
      "Ġscu": 3720,
      "uire": 3721,
      "Ġvineri": 3722,
      "ficarea": 3723,
      "Ġfrancez": 3724,
      "Ġ2001": 3725,
      "Ġcreat": 3726,
      "ĠJohn": 3727,
      "Ġclub": 3728,
      "arm": 3729,
      "lov": 3730,
      "ĠsituaÈĽia": 3731,
      "Ġcaracter": 3732,
      "Ġhid": 3733,
      "ÈĽioneazÄĥ": 3734,
      "ĠÃ®ncÄĥl": 3735,
      "berg": 3736,
      "ÈĻtilor": 3737,
      "'s": 3738,
      "osp": 3739,
      "tile": 3740,
      "aru": 3741,
      "stele": 3742,
      "Ġbul": 3743,
      "Ġcuvinte": 3744,
      "Ġza": 3745,
      "ĠGo": 3746,
      "Ġlumii": 3747,
      "ak": 3748,
      "Ġcrescut": 3749,
      "Ġ2015": 3750,
      "Ġprofesor": 3751,
      "uca": 3752,
      "Ġfacem": 3753,
      "ĠÃ®mi": 3754,
      "Ġ188": 3755,
      "rb": 3756,
      "LE": 3757,
      "vs": 3758,
      "go": 3759,
      "ĠSib": 3760,
      "Ġfact": 3761,
      "Ġth": 3762,
      "ĠLiviu": 3763,
      "âĢ¢": 3764,
      "gari": 3765,
      "ĠnaÈĽionale": 3766,
      "Ġdimensi": 3767,
      "Ġucraine": 3768,
      "amentului": 3769,
      "itÄĥÈĽilor": 3770,
      "ĠTud": 3771,
      "Ġpt": 3772,
      "ĠRepublicii": 3773,
      "Ġinstru": 3774,
      "orta": 3775,
      "Ġvar": 3776,
      "ĠÈĻtiu": 3777,
      "Ġgrij": 3778,
      "lav": 3779,
      "ÈĽare": 3780,
      "Ġconcent": 3781,
      "ĠzonÄĥ": 3782,
      "ĠOri": 3783,
      "ferent": 3784,
      "Ġremar": 3785,
      "alizarea": 3786,
      "anului": 3787,
      "Ġprofesion": 3788,
      "Ġistorice": 3789,
      "ARE": 3790,
      "Ġpoti": 3791,
      "Ġminim": 3792,
      "Ġ186": 3793,
      "Ġast": 3794,
      "oma": 3795,
      "ĠDNA": 3796,
      "Ġeval": 3797,
      "Ġantren": 3798,
      "usÄĥ": 3799,
      "ĠoraÈĻe": 3800,
      "vor": 3801,
      "Ġguvernul": 3802,
      "ĠEa": 3803,
      "Ġmedia": 3804,
      "bila": 3805,
      "Ġarticol": 3806,
      "ee": 3807,
      "ĠAceastÄĥ": 3808,
      "Ġperfect": 3809,
      "urt": 3810,
      "iam": 3811,
      "90": 3812,
      "ĠBiserica": 3813,
      "Ġlog": 3814,
      "su": 3815,
      "Ġmateriale": 3816,
      "artÄĥ": 3817,
      "otdeauna": 3818,
      "ĠJusti": 3819,
      "Ġsemnat": 3820,
      ".)": 3821,
      "Ġdedic": 3822,
      "orn": 3823,
      "Ġtransmite": 3824,
      "Ġjoi": 3825,
      "Ġvreo": 3826,
      "inge": 3827,
      "Ġsistemului": 3828,
      "ĠGa": 3829,
      "easca": 3830,
      "ĠÃ®ncepÃ¢nd": 3831,
      "rumul": 3832,
      "Ġimi": 3833,
      "ĠdepÄĥ": 3834,
      "Ġbal": 3835,
      "Ġmodel": 3836,
      "ĠSan": 3837,
      "Ġultimele": 3838,
      "http": 3839,
      "Bi": 3840,
      "ĠChina": 3841,
      "Ġanterior": 3842,
      "Ġridicat": 3843,
      "Ġali": 3844,
      "isa": 3845,
      "Ġmediu": 3846,
      "ĠEu": 3847,
      "Ġpoli": 3848,
      "rid": 3849,
      "ĠOra": 3850,
      "ĠpersoanÄĥ": 3851,
      "ĠVer": 3852,
      "ĠTimiÈĻoara": 3853,
      "Ġproiecte": 3854,
      "ĠtatÄĥ": 3855,
      "imit": 3856,
      "SS": 3857,
      "Ġaspect": 3858,
      "Ġ1989": 3859,
      "Conform": 3860,
      "Fil": 3861,
      "Ġmoartea": 3862,
      "Ġparticipat": 3863,
      "oarce": 3864,
      "Ġmaghi": 3865,
      "Ġdub": 3866,
      "ÈĻinÄĥ": 3867,
      "bel": 3868,
      "Ġscopul": 3869,
      "Ġsimb": 3870,
      "ÈĽial": 3871,
      "Ġcale": 3872,
      "mentul": 3873,
      "Ġ+": 3874,
      "ĠBas": 3875,
      "Ġauto": 3876,
      "ĠnaÈĻte": 3877,
      "uzat": 3878,
      "ĠBal": 3879,
      "RomÃ¢n": 3880,
      "ram": 3881,
      "ĠUngaria": 3882,
      "Ġreligi": 3883,
      "Ġmecan": 3884,
      "ĠUSR": 3885,
      "ĠPal": 3886,
      "Ġelectron": 3887,
      "Ġachizi": 3888,
      "Ġveni": 3889,
      "Ġcazuri": 3890,
      "Ġrezerv": 3891,
      "Ġconsiderat": 3892,
      "Ġteat": 3893,
      "Ġcali": 3894,
      "Ġacesteia": 3895,
      "cului": 3896,
      "Ġnot": 3897,
      "ĠsÄĥnÄĥtate": 3898,
      "Ġultimii": 3899,
      "Ġreal": 3900,
      "rest": 3901,
      "ĠSup": 3902,
      "sel": 3903,
      "Ġperform": 3904,
      "Ġ2021": 3905,
      "inescu": 3906,
      "Ġactivitate": 3907,
      "Ġmunc": 3908,
      "Ġarhitect": 3909,
      "Ġlipsa": 3910,
      "IA": 3911,
      "Ġbra": 3912,
      "Ġdetal": 3913,
      "cid": 3914,
      "Ġnaturale": 3915,
      "Ġaccept": 3916,
      "oper": 3917,
      "Ġprefer": 3918,
      "ĠUniunea": 3919,
      "Ġfolosite": 3920,
      "dare": 3921,
      "Ġpuncte": 3922,
      "Ġdie": 3923,
      "Ġglob": 3924,
      "Ġintermediul": 3925,
      "Ġefort": 3926,
      "ĠcÃ¢ÈĻtig": 3927,
      "Ġmasa": 3928,
      "Ġpoet": 3929,
      "ĠMoscova": 3930,
      "ik": 3931,
      "Ġtale": 3932,
      "ĠSal": 3933,
      "Ġscriitor": 3934,
      "tine": 3935,
      "ĠlegÄĥturÄĥ": 3936,
      "ĠcreÈĻtere": 3937,
      "Ġmereu": 3938,
      "ĠurmeazÄĥ": 3939,
      "vel": 3940,
      "ĠLond": 3941,
      "Ġputerea": 3942,
      "!!!!": 3943,
      "ĠadÄĥugat": 3944,
      "PS": 3945,
      "ĠHa": 3946,
      "ĠcondiÈĽiile": 3947,
      "qu": 3948,
      "ocal": 3949,
      "Ġposibilitatea": 3950,
      "TA": 3951,
      "Ġlucrurile": 3952,
      "Ġprotej": 3953,
      "Ġalbum": 3954,
      "ĠurmÄĥtoarele": 3955,
      "ĠÈĽi": 3956,
      "Ġrenun": 3957,
      "Ġsepar": 3958,
      "Ġzilei": 3959,
      "Ġlegea": 3960,
      "Ġdesp": 3961,
      "ors": 3962,
      "oziÈĽia": 3963,
      "erti": 3964,
      "ĠIst": 3965,
      "Ġprocuro": 3966,
      "Ġsituat": 3967,
      "ĠCult": 3968,
      "apte": 3969,
      "arab": 3970,
      "ĠvÃ¢rstÄĥ": 3971,
      "Ġexce": 3972,
      "cÃ¢nd": 3973,
      "Ġsine": 3974,
      "ock": 3975,
      "ĠSec": 3976,
      "Ġcateva": 3977,
      "Ġresta": 3978,
      "abile": 3979,
      "ĠpreÈĻedintelui": 3980,
      "Ġkil": 3981,
      "altÄĥ": 3982,
      "ĠDa": 3983,
      "Ġconvin": 3984,
      "ĠobÈĽin": 3985,
      "ĠÈĻan": 3986,
      "ĠGi": 3987,
      "Ġvit": 3988,
      "Ġfotbalist": 3989,
      "Ġechip": 3990,
      "Ġfotograf": 3991,
      "Ġpractic": 3992,
      "Ġprecizat": 3993,
      "ĠAme": 3994,
      "ĠacasÄĥ": 3995,
      "ĠTransilvania": 3996,
      "Daca": 3997,
      "roc": 3998,
      "nescu": 3999,
      "Ġpal": 4000,
      "tÄĥrii": 4001,
      "Ġprezi": 4002,
      "Ġarticole": 4003,
      "ĠRo": 4004,
      "Ġfamiliei": 4005,
      "ĠgÄĥsit": 4006,
      "IE": 4007,
      "ÈĻedinÈĽa": 4008,
      "Ġmajor": 4009,
      "ĠPaul": 4010,
      "nice": 4011,
      "Ġlupta": 4012,
      "Ġ31": 4013,
      "ĠÈĻtiinÈĽi": 4014,
      "Ġtoti": 4015,
      "ĠpregÄĥti": 4016,
      "ÈĽiune": 4017,
      "udici": 4018,
      "Ġprocesul": 4019,
      "des": 4020,
      "ĠJe": 4021,
      "ĠÈĻtie": 4022,
      "Ġserviciu": 4023,
      "ĠjudeÈĽului": 4024,
      "ĠAlb": 4025,
      "stei": 4026,
      "cen": 4027,
      "ĠcÄĥrÈĽi": 4028,
      "Ġobiectiv": 4029,
      "arile": 4030,
      "Ġaltor": 4031,
      "Ġcirca": 4032,
      "Ġconstruit": 4033,
      "zÃ¢nd": 4034,
      "ĠÃ®mbunÄĥ": 4035,
      "Ġamericani": 4036,
      "ĠTri": 4037,
      "ko": 4038,
      "ÈĽum": 4039,
      "ĠUl": 4040,
      "Ġince": 4041,
      "iza": 4042,
      "sional": 4043,
      "ritÄĥ": 4044,
      "Ġlovit": 4045,
      "Ġlista": 4046,
      "Ġviolen": 4047,
      "Ġmel": 4048,
      "ĠGu": 4049,
      "itorii": 4050,
      "Ġuneori": 4051,
      "viu": 4052,
      "Ġarg": 4053,
      "Ġemo": 4054,
      "Ġfisc": 4055,
      "ĠstÃ¢n": 4056,
      "burg": 4057,
      "pentru": 4058,
      "Ġconduce": 4059,
      "ĠcÃ¢ntÄĥ": 4060,
      "Ġson": 4061,
      "ĠServ": 4062,
      "atorului": 4063,
      "orit": 4064,
      "ilib": 4065,
      "Ġcritic": 4066,
      "Ġfii": 4067,
      "itudine": 4068,
      "Ġeuropean": 4069,
      "ĠÃ®nchi": 4070,
      "Ġcopiilor": 4071,
      "Ġfemeie": 4072,
      "Ð½": 4073,
      "75": 4074,
      "Ġmama": 4075,
      "Ġconducerea": 4076,
      "Ġajung": 4077,
      "ĠconsiderÄĥ": 4078,
      "ĠRoman": 4079,
      "Ġopin": 4080,
      "Ġproced": 4081,
      "Ġelemente": 4082,
      "hail": 4083,
      "ĠinternaÈĽional": 4084,
      "Ġorganizat": 4085,
      "sterului": 4086,
      "Ġinva": 4087,
      "ĠautoritÄĥÈĽile": 4088,
      "ðŁ": 4089,
      "Ġpom": 4090,
      "ĠnaÈĽionalÄĥ": 4091,
      "oaie": 4092,
      "ĠrÃ¢ului": 4093,
      "ĠÃ®nche": 4094,
      "Ġlocuitorilor": 4095,
      "ĠIN": 4096,
      "uralÄĥ": 4097,
      "Ġdel": 4098,
      "Ġcrede": 4099,
      "ctul": 4100,
      "Ġperman": 4101,
      "por": 4102,
      "ĠaceÈĻtia": 4103,
      "Ġpolitica": 4104,
      "Ġsurse": 4105,
      "zul": 4106,
      "Ġapropi": 4107,
      "Ġpartide": 4108,
      "Ġrezisten": 4109,
      "diului": 4110,
      "Acea": 4111,
      "ilia": 4112,
      "ĠUniversitÄĥÈĽii": 4113,
      "mise": 4114,
      "Ġulei": 4115,
      "elui": 4116,
      "Ġvict": 4117,
      "ctorul": 4118,
      "Ġdif": 4119,
      "Ġdvs": 4120,
      "Ġspor": 4121,
      "Ap": 4122,
      "cÈĽiuni": 4123,
      "abri": 4124,
      "48": 4125,
      "Ġsatului": 4126,
      "ĠadevÄĥrat": 4127,
      "Ġistorie": 4128,
      "Ġtransfer": 4129,
      "ReferinÈĽe": 4130,
      "lare": 4131,
      "ferend": 4132,
      "LI": 4133,
      "ĠrÄĥsp": 4134,
      "Ġaveau": 4135,
      "Fot": 4136,
      "entelor": 4137,
      "Ġaur": 4138,
      "aturÄĥ": 4139,
      "Tot": 4140,
      "Mon": 4141,
      "ĠcreÈĻterea": 4142,
      "Ġameste": 4143,
      "Ġpoz": 4144,
      "ĠpÄĥrÄĥ": 4145,
      "ĠTÃ¢r": 4146,
      "ariu": 4147,
      "ington": 4148,
      "Ġrecu": 4149,
      "sedin": 4150,
      "ucÄĥ": 4151,
      "time": 4152,
      "Ora": 4153,
      "ĠcuvÃ¢nt": 4154,
      "ĠcÄĥlÄĥtori": 4155,
      "anÈĽe": 4156,
      "ÑĢ": 4157,
      "ĠVo": 4158,
      "Ġcame": 4159,
      "Ġdeveni": 4160,
      "Ġdecizia": 4161,
      "Ġprovoc": 4162,
      "Ġacele": 4163,
      "Ġ2022": 4164,
      "jele": 4165,
      "Ġlua": 4166,
      "isp": 4167,
      "ptam": 4168,
      "Ġconsult": 4169,
      "Ġrache": 4170,
      "Ġcookie": 4171,
      "Ġtrafic": 4172,
      "oric": 4173,
      "usi": 4174,
      "neÈĻti": 4175,
      "Ġzone": 4176,
      "mos": 4177,
      "ham": 4178,
      "alii": 4179,
      "Â»": 4180,
      "ĠCam": 4181,
      "ĠXIX": 4182,
      "ĠrÄĥzboiului": 4183,
      "Ġaeri": 4184,
      "Ġesti": 4185,
      "ĠcunoscutÄĥ": 4186,
      "ristos": 4187,
      "Ã¤": 4188,
      "Ġpan": 4189,
      "Ġvis": 4190,
      "Ġlas": 4191,
      "Ġpersoanele": 4192,
      "oft": 4193,
      "Ġmobil": 4194,
      "ĠEi": 4195,
      "ĠPoli": 4196,
      "Ġexpri": 4197,
      "lip": 4198,
      "Ġemisi": 4199,
      "ĠGrec": 4200,
      "uiesc": 4201,
      "Polit": 4202,
      "devÄĥr": 4203,
      "Ġcompania": 4204,
      "Ġrepede": 4205,
      "Ġpierde": 4206,
      "Ġfru": 4207,
      "ÑĤ": 4208,
      "ĠÄĥ": 4209,
      "ĠCÃ¢": 4210,
      "ner": 4211,
      "itatii": 4212,
      "Ġresur": 4213,
      "arcÄĥ": 4214,
      "rap": 4215,
      "Ġgaze": 4216,
      "Ġdoresc": 4217,
      "Ġmembri": 4218,
      "ys": 4219,
      "Ġ'": 4220,
      "forma": 4221,
      "ĠChiÈĻinÄĥ": 4222,
      "Ġx": 4223,
      "Ġlegi": 4224,
      "Ġpersoana": 4225,
      "Ġpap": 4226,
      "Ġproduce": 4227,
      "Ġseara": 4228,
      "Ġpil": 4229,
      "Ġfaca": 4230,
      "tali": 4231,
      "ĠCod": 4232,
      "Ġpreg": 4233,
      "desc": 4234,
      "sen": 4235,
      "zei": 4236,
      "Ġcari": 4237,
      "Ġanume": 4238,
      "OM": 4239,
      "no": 4240,
      "onat": 4241,
      "Ġ80": 4242,
      "%,": 4243,
      "Ġcivil": 4244,
      "Ġcomunicat": 4245,
      "dice": 4246,
      "jun": 4247,
      "Ġgro": 4248,
      "itive": 4249,
      "Ġexecut": 4250,
      "gia": 4251,
      "ĠDumit": 4252,
      "ĠCE": 4253,
      "ĠMus": 4254,
      "urarea": 4255,
      "ĠvÃ¢rsta": 4256,
      "Ġtocmai": 4257,
      "Ġmodern": 4258,
      "ĠmÄĥsuri": 4259,
      "Ġpartidului": 4260,
      "ĠBog": 4261,
      "ĠsiguranÈĽÄĥ": 4262,
      "Oam": 4263,
      "Ġmunca": 4264,
      "Ġrecunos": 4265,
      "rina": 4266,
      "Ġlegii": 4267,
      "ĠsÄĥrb": 4268,
      "Ġopt": 4269,
      "ĠBraÈĻov": 4270,
      "ĠimportantÄĥ": 4271,
      "ĠasigurÄĥ": 4272,
      "Ġcheltui": 4273,
      "Ġdatelor": 4274,
      "out": 4275,
      "ĠĠ": 4276,
      "Ġste": 4277,
      "Ġpunctul": 4278,
      "odor": 4279,
      "fica": 4280,
      "ĠsÄĥptÄĥmÃ¢ni": 4281,
      "aua": 4282,
      "ĠÃ®nvÄĥÈĽÄĥ": 4283,
      "ospod": 4284,
      "Ġspeciale": 4285,
      "Ġlini": 4286,
      "Ġsingura": 4287,
      "Ġacuz": 4288,
      "ĠÂ«": 4289,
      "ursa": 4290,
      "Ñģ": 4291,
      "Ġmunicipi": 4292,
      "Ġmilitar": 4293,
      "35": 4294,
      "ĠMureÈĻ": 4295,
      "Ġaust": 4296,
      "Ġprevede": 4297,
      "Ġnec": 4298,
      "Ġcontinua": 4299,
      "Ġ1999": 4300,
      "inare": 4301,
      "Ġdecor": 4302,
      "45": 4303,
      "Ġnecesar": 4304,
      "Ġcandid": 4305,
      "))": 4306,
      "ĠCop": 4307,
      "ceanu": 4308,
      "Ġzil": 4309,
      "Ġtrimite": 4310,
      "Ġfen": 4311,
      "Ġtro": 4312,
      "ibile": 4313,
      "Ġevenimente": 4314,
      "ere": 4315,
      "Ġvremea": 4316,
      "ĠodatÄĥ": 4317,
      "och": 4318,
      "ĠformatÄĥ": 4319,
      "Ġaccident": 4320,
      "orel": 4321,
      "Ġpron": 4322,
      "Ġcompanii": 4323,
      "ket": 4324,
      "Ġsuper": 4325,
      "siuni": 4326,
      "Ġelev": 4327,
      "af": 4328,
      "tatÄĥ": 4329,
      "ide": 4330,
      "ĠNeg": 4331,
      "ĠGh": 4332,
      "Ġabuz": 4333,
      "ĠMaj": 4334,
      "Ġexecu": 4335,
      "struct": 4336,
      "ood": 4337,
      "Ġcm": 4338,
      "Ġteme": 4339,
      "Ġinterz": 4340,
      "stitu": 4341,
      "icieni": 4342,
      "ÈĻtin": 4343,
      "ĠalÈĽi": 4344,
      "ker": 4345,
      "Ġbiserica": 4346,
      "inarea": 4347,
      "VI": 4348,
      "enÈĽii": 4349,
      "iaÈĽÄĥ": 4350,
      "iciile": 4351,
      "Ġstudii": 4352,
      "Ġfix": 4353,
      "Ġuci": 4354,
      "Ġprezentat": 4355,
      "Ġcentru": 4356,
      "Ġedit": 4357,
      "ĠprezintÄĥ": 4358,
      "PreÈĻedintele": 4359,
      "log": 4360,
      "Ġcauz": 4361,
      "Ġfiul": 4362,
      "Ġproiectul": 4363,
      "ĠÈĺtefan": 4364,
      "ĠmodificÄĥ": 4365,
      "osof": 4366,
      "Ġavans": 4367,
      "Ġsold": 4368,
      "Ġcursul": 4369,
      "Memb": 4370,
      "ĠIul": 4371,
      "Ġ500": 4372,
      "Ġexam": 4373,
      "Ġsate": 4374,
      "Ġreduce": 4375,
      "Ġoamenilor": 4376,
      "Ġamericane": 4377,
      "bul": 4378,
      "ĠmÃ¢": 4379,
      "amÄĥ": 4380,
      "Ġnoul": 4381,
      "ks": 4382,
      "ĠAceste": 4383,
      "eag": 4384,
      "ĠtotuÈĻi": 4385,
      "Ġanimale": 4386,
      "ĠRadu": 4387,
      "ĠCele": 4388,
      "ovici": 4389,
      "Ġret": 4390,
      "Ġrestul": 4391,
      "ĠcondiÈĽii": 4392,
      "cÄĥt": 4393,
      "Ġasoci": 4394,
      "Ġsecre": 4395,
      "Ġformul": 4396,
      "Ġdezvoltare": 4397,
      "ĠConsiliul": 4398,
      "ero": 4399,
      "Ġprocur": 4400,
      "ĠrusÄĥ": 4401,
      "nt": 4402,
      "Ġprimar": 4403,
      "ĠÈĽinut": 4404,
      "ĠpopulaÈĽiei": 4405,
      "Ġcuce": 4406,
      "ician": 4407,
      "teni": 4408,
      "Ġdemis": 4409,
      "ĠeÈĻti": 4410,
      "Ġmotive": 4411,
      "ĠEuropei": 4412,
      "Ġpoten": 4413,
      "Ġdirector": 4414,
      "itorilor": 4415,
      "ĠZi": 4416,
      "Ġrevolu": 4417,
      "tÄĥÈĽilor": 4418,
      "ĠÃ®nain": 4419,
      "ĠGuvernul": 4420,
      "Ġorigine": 4421,
      "Ġimagini": 4422,
      "ĠinternaÈĽionale": 4423,
      "Ġstabilit": 4424,
      "Ġestim": 4425,
      "orb": 4426,
      "Ġclasa": 4427,
      "icile": 4428,
      "ĠobiÈĻ": 4429,
      "zute": 4430,
      "ĠComisiei": 4431,
      "Ġcrea": 4432,
      "ĠCÃ¢nd": 4433,
      "Ġfl": 4434,
      "reia": 4435,
      "ĠalÈĽii": 4436,
      "Ġcoordon": 4437,
      "Ġasisten": 4438,
      "onald": 4439,
      "Ġuman": 4440,
      "ĠcÃ¢nte": 4441,
      "Ġcab": 4442,
      "Sf": 4443,
      "ary": 4444,
      "Ġromane": 4445,
      "ĠBru": 4446,
      "ĠCarol": 4447,
      "ghi": 4448,
      "ĠforÈĽele": 4449,
      "Ġchine": 4450,
      "stiv": 4451,
      "Ġcontri": 4452,
      "Ġaminte": 4453,
      "Ġfu": 4454,
      "iari": 4455,
      "Ġsediul": 4456,
      "Ġdiminea": 4457,
      "gres": 4458,
      "Ġfav": 4459,
      "ĠOb": 4460,
      "Ġfostul": 4461,
      "Ġident": 4462,
      "ĠmultÄĥ": 4463,
      "ĠInterne": 4464,
      "Ġdescoperit": 4465,
      "ĠmuzicÄĥ": 4466,
      "ĠcÃ¢mp": 4467,
      "Ġvice": 4468,
      "ben": 4469,
      "ĠPra": 4470,
      "andar": 4471,
      "Ġarmata": 4472,
      "ĠgÄĥsi": 4473,
      "alÈĽi": 4474,
      "ĠPl": 4475,
      "Ġinfluen": 4476,
      "ĠPartidului": 4477,
      "ÈĽit": 4478,
      "Ġnormal": 4479,
      "Ġtan": 4480,
      "ĠCS": 4481,
      "Ġgreutate": 4482,
      "umÄĥ": 4483,
      "ĠCurtea": 4484,
      "ĠruÈĻi": 4485,
      "mer": 4486,
      "atate": 4487,
      "oana": 4488,
      "ĠÃ®ncercat": 4489,
      "ĠconÈĽinut": 4490,
      "ĠAndrei": 4491,
      "Ġdrumul": 4492,
      "Ã¨": 4493,
      "ĠConstanÈĽa": 4494,
      "we": 4495,
      "Ġcompanie": 4496,
      "cis": 4497,
      "Ġfrun": 4498,
      "Ġadesea": 4499,
      "Ġant": 4500,
      "ĠBuc": 4501,
      "CE": 4502,
      "arele": 4503,
      "ĠgermanÄĥ": 4504,
      "ĠAmerica": 4505,
      "atat": 4506,
      "Ġreferit": 4507,
      "Ġcompaniei": 4508,
      "Ġbiro": 4509,
      "ĠMircea": 4510,
      "Ġtitlul": 4511,
      "agÄĥ": 4512,
      "imea": 4513,
      "Ġ70": 4514,
      "ass": 4515,
      "Ġciuda": 4516,
      "Ġzilele": 4517,
      "Ġzis": 4518,
      "cor": 4519,
      "ars": 4520,
      "Ġvinde": 4521,
      "Ġradio": 4522,
      "Acest": 4523,
      "ĠpopulaÈĽie": 4524,
      "gerpres": 4525,
      "Ġmele": 4526,
      "isti": 4527,
      "ĠreÈĽele": 4528,
      "ĠÃ®nl": 4529,
      "Ġemis": 4530,
      "uzeul": 4531,
      "andu": 4532,
      "ticul": 4533,
      "Ġsluj": 4534,
      "ĠCan": 4535,
      "Ġart": 4536,
      "ilip": 4537,
      "ĠBritanie": 4538,
      "anÈĽei": 4539,
      "ĠCl": 4540,
      "Ġrit": 4541,
      "Äĥrat": 4542,
      "ho": 4543,
      "Ġmers": 4544,
      "ĠApelor": 4545,
      "ĠðŁ": 4546,
      "Ġvederea": 4547,
      "ĠstrÃ¢n": 4548,
      "ografia": 4549,
      "ĠÈĻcoalÄĥ": 4550,
      "curile": 4551,
      "Äĥtura": 4552,
      "Ġcelelalte": 4553,
      "Ġtare": 4554,
      "ĠCasa": 4555,
      "ĠiniÈĽial": 4556,
      "Ġmisi": 4557,
      "ĠGro": 4558,
      "Ġcontact": 4559,
      "ĠSoci": 4560,
      "ĠputeÈĽi": 4561,
      "Ġdig": 4562,
      "ley": 4563,
      "itarea": 4564,
      "Ġjocuri": 4565,
      "OS": 4566,
      "ĠIran": 4567,
      "Ġplecat": 4568,
      "ĠconÈĻti": 4569,
      "Ġmetal": 4570,
      "ĠChiÈĻinÄĥu": 4571,
      "Ġmodele": 4572,
      "Ġambele": 4573,
      "Ġinclude": 4574,
      "Ġmode": 4575,
      "Ġreferend": 4576,
      "urare": 4577,
      "ĠcasÄĥ": 4578,
      "umat": 4579,
      "bire": 4580,
      "Ð¾Ð": 4581,
      "ĠSen": 4582,
      "Ġgust": 4583,
      "Ġeconomice": 4584,
      "Ġsimbol": 4585,
      "izate": 4586,
      "raÈĽiei": 4587,
      "Ġusor": 4588,
      "Ġfrumos": 4589,
      "ont": 4590,
      "Ġ||": 4591,
      "fere": 4592,
      "zinta": 4593,
      "Ġevalu": 4594,
      "ĠAsta": 4595,
      "Ġ()": 4596,
      "ĠIV": 4597,
      "Ġraspun": 4598,
      "rala": 4599,
      "Ãİntre": 4600,
      "Ġideea": 4601,
      "Ġtratament": 4602,
      "ĠMil": 4603,
      "ĠurgenÈĽÄĥ": 4604,
      "Ġ1996": 4605,
      "Ġnoapte": 4606,
      "idu": 4607,
      "ses": 4608,
      "Ġordon": 4609,
      "ĠNa": 4610,
      "Ġrisc": 4611,
      "ĠAÈĻa": 4612,
      "ĠÃ®nchei": 4613,
      "Ġdemonst": 4614,
      "UN": 4615,
      "erve": 4616,
      "Ġdatele": 4617,
      "Ġlunii": 4618,
      "apoi": 4619,
      "ĠÈĻeful": 4620,
      "Ġela": 4621,
      "ĠSA": 4622,
      "Ġconcep": 4623,
      "ĠDav": 4624,
      "ĠsuprafaÈĽÄĥ": 4625,
      "Ġvul": 4626,
      "tale": 4627,
      "dura": 4628,
      "ĠComun": 4629,
      "ory": 4630,
      "alta": 4631,
      "Ġochi": 4632,
      "ĠAg": 4633,
      "ĠieÈĻi": 4634,
      "ÄĥlÈĽi": 4635,
      "ĠprÄĥ": 4636,
      "Ġpolitician": 4637,
      "ĠlucrÄĥri": 4638,
      "onalÄĥ": 4639,
      "Ġtrea": 4640,
      "Ġajutor": 4641,
      "illiam": 4642,
      "Ġder": 4643,
      "Ġinainte": 4644,
      "ĠCat": 4645,
      "icip": 4646,
      "Sp": 4647,
      "dor": 4648,
      "ya": 4649,
      "ĠSibiu": 4650,
      "Ġniste": 4651,
      "190": 4652,
      "Äĥtorilor": 4653,
      "ĠduminicÄĥ": 4654,
      "Ġdreapta": 4655,
      "fera": 4656,
      "uieÈĻte": 4657,
      "tu": 4658,
      "Ġvers": 4659,
      "ĠMoldovei": 4660,
      "ĠAsocia": 4661,
      "ĠBucuresti": 4662,
      "Ġfelul": 4663,
      "Ġjucat": 4664,
      "ĠGre": 4665,
      "Ġ90": 4666,
      "Ġgrani": 4667,
      "zile": 4668,
      "Ġcorespun": 4669,
      "Ġguvernului": 4670,
      "anti": 4671,
      "onim": 4672,
      "Ġvezi": 4673,
      "aniel": 4674,
      "ĠAb": 4675,
      "Ġtren": 4676,
      "ĠJos": 4677,
      "ghel": 4678,
      "Ġactor": 4679,
      "iri": 4680,
      "mpor": 4681,
      "Ġjo": 4682,
      "Ġagre": 4683,
      "ĠromÃ¢nesc": 4684,
      "Ġlucrat": 4685,
      "ĠMinisterului": 4686,
      "ĠAre": 4687,
      "utului": 4688,
      "Ġcomune": 4689,
      "ĠrÄĥu": 4690,
      "zinul": 4691,
      "Ġconv": 4692,
      "Ġschimbat": 4693,
      "Ġalegeri": 4694,
      "Ġsurprin": 4695,
      "ĠÃ®mbunÄĥtÄĥÈĽi": 4696,
      "Tra": 4697,
      "ĠEp": 4698,
      "Ġculoare": 4699,
      "Ġmagist": 4700,
      "RÃ¢uri": 4701,
      "Ġcomport": 4702,
      "ĠpoliÈĽi": 4703,
      "ĠromÃ¢neascÄĥ": 4704,
      "Ġspectac": 4705,
      "acia": 4706,
      "ĠpÄĥt": 4707,
      "Ã¢mbÄĥtÄĥ": 4708,
      "Ma": 4709,
      "Ġbro": 4710,
      "reÈĻte": 4711,
      "ĠreÈĽea": 4712,
      "ĠBisericii": 4713,
      "rescu": 4714,
      "ĠconÈĽine": 4715,
      "ĠAnt": 4716,
      "ding": 4717,
      "Ġ1971": 4718,
      "Ġomul": 4719,
      "Ġmetod": 4720,
      "ĠValea": 4721,
      "ĠHot": 4722,
      "Ġavanta": 4723,
      "ĠfÄĥcute": 4724,
      "Ġexpl": 4725,
      "At": 4726,
      "Ġvedem": 4727,
      "ĠpiaÈĽa": 4728,
      "ish": 4729,
      "ÃŃ": 4730,
      "inistrul": 4731,
      "Ġrecent": 4732,
      "Ġabord": 4733,
      "AM": 4734,
      "ĠMet": 4735,
      "laus": 4736,
      "Ġcolon": 4737,
      "ĠÃİntre": 4738,
      "ionul": 4739,
      "ĠDomnului": 4740,
      "ĠvÃ¢nd": 4741,
      "Ġconsecin": 4742,
      "Ġplante": 4743,
      "Ġdeven": 4744,
      "ciu": 4745,
      "99": 4746,
      "Ġeva": 4747,
      "ĠIlie": 4748,
      "dian": 4749,
      "Ġvir": 4750,
      "alizate": 4751,
      "Ġmembrii": 4752,
      "Ġment": 4753,
      "Ġabia": 4754,
      "Ġrand": 4755,
      "ĠMor": 4756,
      "ocul": 4757,
      "ĠIl": 4758,
      "Ġstiu": 4759,
      "IT": 4760,
      "Ġconcurs": 4761,
      "ĠDem": 4762,
      "Ġ1998": 4763,
      "Ġtest": 4764,
      "Ġcreste": 4765,
      "Ġsute": 4766,
      "Ġ1992": 4767,
      "Ġvrem": 4768,
      "Pers": 4769,
      "Ġactual": 4770,
      "ĠÈĽine": 4771,
      "Ġsezon": 4772,
      "Ba": 4773,
      "Ġoferit": 4774,
      "aliza": 4775,
      "oriei": 4776,
      "ĠOn": 4777,
      "cepÃ¢nd": 4778,
      "sibile": 4779,
      "ĠPope": 4780,
      "Ġapel": 4781,
      "Sunt": 4782,
      "inÈĽei": 4783,
      "Ġpsd": 4784,
      "Ġanilor": 4785,
      "asupra": 4786,
      "Ġaflu": 4787,
      "Ġindustri": 4788,
      "Ġdoctor": 4789,
      "ĠAgerpres": 4790,
      "ĠPen": 4791,
      "Ġforme": 4792,
      "ĠenglezÄĥ": 4793,
      "Ġfo": 4794,
      "Ġochii": 4795,
      "Ġabs": 4796,
      "ListÄĥ": 4797,
      "Ġbisericii": 4798,
      "ĠAmericii": 4799,
      "Ġpache": 4800,
      "ĠMac": 4801,
      "Ġinterne": 4802,
      "ĠfrancezÄĥ": 4803,
      "gare": 4804,
      "Ġbur": 4805,
      "ĠbÄĥt": 4806,
      "ĠHen": 4807,
      "ĠintrÄĥ": 4808,
      "Ġpermis": 4809,
      "ĠprezidenÈĽi": 4810,
      "dica": 4811,
      "Ġvan": 4812,
      "ieÈĻti": 4813,
      "icale": 4814,
      "Ġtul": 4815,
      "Ġpiat": 4816,
      "Ġcontinuat": 4817,
      "ĠsingurÄĥ": 4818,
      "Ġarticul": 4819,
      "Ġdetalii": 4820,
      "31": 4821,
      "ibliote": 4822,
      "ashington": 4823,
      "ling": 4824,
      "ĠAL": 4825,
      "ĠFacul": 4826,
      "catol": 4827,
      "%.": 4828,
      "ĠdeÈĽin": 4829,
      "ĠVal": 4830,
      "todox": 4831,
      "elor": 4832,
      "Sa": 4833,
      "elen": 4834,
      "maticÄĥ": 4835,
      "Ġsport": 4836,
      "ocurile": 4837,
      "Ġmie": 4838,
      "Ġcondit": 4839,
      "ĠFi": 4840,
      "ĠComisia": 4841,
      "nici": 4842,
      "ille": 4843,
      "mografie": 4844,
      "unos": 4845,
      "Ġdispoz": 4846,
      "Ġexplicat": 4847,
      "omo": 4848,
      "Ġzic": 4849,
      "Ġteleviziune": 4850,
      "Ġtari": 4851,
      "Ġvig": 4852,
      "odata": 4853,
      "Ãİ": 4854,
      "Ġrele": 4855,
      "Ġvorbit": 4856,
      "Ġpolone": 4857,
      "Ġtimpului": 4858,
      "ĠAlba": 4859,
      "Ġconclu": 4860,
      "Ġechilib": 4861,
      "ĠSol": 4862,
      "Ġmultor": 4863,
      "Ġsprijinul": 4864,
      "Ġadministrativ": 4865,
      "Ġgal": 4866,
      "Ġvaloarea": 4867,
      "ganiz": 4868,
      "Ġindividu": 4869,
      "Ġara": 4870,
      "elul": 4871,
      "Ġinclus": 4872,
      "ĠÈĻapte": 4873,
      "Ġadevar": 4874,
      "Ġcandidat": 4875,
      "ĠHer": 4876,
      "ĠtotalÄĥ": 4877,
      "ĠFeder": 4878,
      "ĠpiaÈĽÄĥ": 4879,
      "ĠLuc": 4880,
      "Ġdecizie": 4881,
      "Ġileg": 4882,
      "ĠpoziÈĽia": 4883,
      "onescu": 4884,
      "lii": 4885,
      "Ġomului": 4886,
      "Ġnumi": 4887,
      "Ġspate": 4888,
      "Ġ185": 4889,
      "amentele": 4890,
      "apoca": 4891,
      "Ġparteneri": 4892,
      "ÈĽate": 4893,
      "Ġinterior": 4894,
      "ĠstrÄĥin": 4895,
      "Ġbate": 4896,
      "ĠarÄĥtat": 4897,
      "Ġexplo": 4898,
      "Di": 4899,
      "iesc": 4900,
      "ĠNaÈĽionale": 4901,
      "ÈĻedinte": 4902,
      "mÄĥn": 4903,
      "Ġpersonale": 4904,
      "Ġcuprinde": 4905,
      "landa": 4906,
      "istri": 4907,
      "Ġacordat": 4908,
      "ĠVladimir": 4909,
      "unat": 4910,
      "ĠSau": 4911,
      "mag": 4912,
      "ĠAdrian": 4913,
      "Ġliderul": 4914,
      "Ġpast": 4915,
      "%)": 4916,
      "Ġdegra": 4917,
      "Ġutilizarea": 4918,
      "Ġdesign": 4919,
      "Ġregiune": 4920,
      "po": 4921,
      "Ġmold": 4922,
      "ĠbisericÄĥ": 4923,
      "ĠCampion": 4924,
      "ĠMul": 4925,
      "teascÄĥ": 4926,
      "Ġdeasupra": 4927,
      "Ġredus": 4928,
      "Ġconsil": 4929,
      "Ġefectuat": 4930,
      "ick": 4931,
      "ĠprevÄĥ": 4932,
      "Ġtoata": 4933,
      "Ġmicro": 4934,
      "dy": 4935,
      "Ġprodusele": 4936,
      "Ġpens": 4937,
      "ĠPolonia": 4938,
      "Ġcombin": 4939,
      "Ġlit": 4940,
      "Ġsig": 4941,
      "rupul": 4942,
      "Ġtipuri": 4943,
      "ĠacÈĽiune": 4944,
      "teze": 4945,
      "Ġflu": 4946,
      "Ġdistri": 4947,
      "Ġascun": 4948,
      "ĠGeneral": 4949,
      "ĠSor": 4950,
      "ĠEst": 4951,
      "ĠproblemÄĥ": 4952,
      "Ġcase": 4953,
      "Ġprogramul": 4954,
      "ĠRobert": 4955,
      "ptea": 4956,
      "reau": 4957,
      "ĠTer": 4958,
      "xel": 4959,
      "Ġtrebu": 4960,
      "rati": 4961,
      "Ġuni": 4962,
      "ĠCea": 4963,
      "Ġbat": 4964,
      "rite": 4965,
      "ĠMin": 4966,
      "Ġent": 4967,
      "Ġaia": 4968,
      "Ġord": 4969,
      "Ġorient": 4970,
      "Ġmedicale": 4971,
      "ierii": 4972,
      "Ġexistat": 4973,
      "ĠMer": 4974,
      "Ġdistribu": 4975,
      "Ġpropriu": 4976,
      "Ġvrei": 4977,
      "ĠÃ®nchisoare": 4978,
      "Ġindependent": 4979,
      "ĠCana": 4980,
      "ĠMit": 4981,
      "Ġdezbate": 4982,
      "abe": 4983,
      "Premi": 4984,
      "ĠNews": 4985,
      "uters": 4986,
      "Ġpret": 4987,
      "Ġintamp": 4988,
      "mentele": 4989,
      "Ġdomeniu": 4990,
      "ĠmasÄĥ": 4991,
      "Ġspatele": 4992,
      "|-": 4993,
      "Ġvon": 4994,
      "Ġveh": 4995,
      "han": 4996,
      "Ġdob": 4997,
      "apa": 4998,
      "ĠnumÄĥ": 4999,
      "Äĥtit": 5000,
      "ĠUN": 5001,
      "ĠCrai": 5002,
      "Ġsarc": 5003,
      "ĠBasarab": 5004,
      "Ġexerc": 5005,
      "ĠChar": 5006,
      "ĠoperaÈĽi": 5007,
      "este": 5008,
      "Ġinfe": 5009,
      "ĠTeat": 5010,
      "pÃ¢n": 5011,
      "Ġstri": 5012,
      "Ġinteriorul": 5013,
      "Ġinformat": 5014,
      "ĠmenÈĽine": 5015,
      "ĠÃ®nÈĽelege": 5016,
      "Ġreferi": 5017,
      "Cele": 5018,
      "Ġapart": 5019,
      "terioare": 5020,
      "Ġpenal": 5021,
      "ĠLum": 5022,
      "Ġcontrolul": 5023,
      "65": 5024,
      "Ġceleb": 5025,
      "apt": 5026,
      "ĠParlamentul": 5027,
      "Ġdenumirea": 5028,
      "Ġantic": 5029,
      "coala": 5030,
      "ĠAdminist": 5031,
      "Ġses": 5032,
      "ĠpÄĥmÃ¢nt": 5033,
      "tier": 5034,
      "Ġviitoare": 5035,
      "Ġzice": 5036,
      "Ġfiu": 5037,
      "ies": 5038,
      "Ġaltern": 5039,
      "lit": 5040,
      "Ġlice": 5041,
      "ĠÃ®ntreg": 5042,
      "Ġdisponi": 5043,
      "Ġortodox": 5044,
      "SÄĥ": 5045,
      "ciun": 5046,
      "2004": 5047,
      "ĠÃ®ncearcÄĥ": 5048,
      "Ġmat": 5049,
      "Ġmediul": 5050,
      "Li": 5051,
      "Lista": 5052,
      "Ġby": 5053,
      "ĠÃ®ntÃ¢mplÄĥ": 5054,
      "colo": 5055,
      "Ġdeclan": 5056,
      "Ġuz": 5057,
      "Ġfilme": 5058,
      "Do": 5059,
      "itarÄĥ": 5060,
      "ĠCal": 5061,
      "Ġinceput": 5062,
      "ozof": 5063,
      "ĠSI": 5064,
      "tel": 5065,
      "ĠGra": 5066,
      "ĠSfÃ¢n": 5067,
      "peni": 5068,
      "Ġ,,": 5069,
      "ĠZe": 5070,
      "Ġindiferent": 5071,
      "ĠMat": 5072,
      "ĠCCR": 5073,
      "Ġ35": 5074,
      "ĠInter": 5075,
      "Ġvotat": 5076,
      "ĠartÄĥ": 5077,
      "Ġaverti": 5078,
      "Ġgesti": 5079,
      "Ġbritanic": 5080,
      "uci": 5081,
      "enÈĽilor": 5082,
      "ÈĽile": 5083,
      "Ġnatural": 5084,
      "cÄĥri": 5085,
      "Ġpropus": 5086,
      "Ã¡n": 5087,
      "ĠAcum": 5088,
      "trol": 5089,
      "Ġmerg": 5090,
      "Ġpersoanelor": 5091,
      "Ã®nd": 5092,
      "cÈĽion": 5093,
      "ĠAle": 5094,
      "Ġ(\"": 5095,
      "operÄĥ": 5096,
      "Ġspani": 5097,
      "Aut": 5098,
      "fra": 5099,
      "Ġsubst": 5100,
      "Ġregia": 5101,
      "Ġmesaj": 5102,
      "?!": 5103,
      "orld": 5104,
      "Ġcasti": 5105,
      "ologicÄĥ": 5106,
      "oiu": 5107,
      "Ġadres": 5108,
      "Ġimplement": 5109,
      "ordin": 5110,
      "strul": 5111,
      "Ġinspi": 5112,
      "seamna": 5113,
      "lob": 5114,
      "Ġnon": 5115,
      "nesc": 5116,
      "ance": 5117,
      "Ġcancer": 5118,
      "FA": 5119,
      "ĠHristos": 5120,
      "Ġcic": 5121,
      "Ġplas": 5122,
      "Harta": 5123,
      "Ġpod": 5124,
      "Ġrefer": 5125,
      "Ġsingle": 5126,
      "ĠGabri": 5127,
      "Ġvoturi": 5128,
      "!!!": 5129,
      "ĠPla": 5130,
      "ĠPrim": 5131,
      "ĠWashington": 5132,
      "77": 5133,
      "Ġcapa": 5134,
      "ico": 5135,
      "ÈĽiunea": 5136,
      "Ġrea": 5137,
      "ĠcÄĥut": 5138,
      "Cel": 5139,
      "Fran": 5140,
      "Sc": 5141,
      "33": 5142,
      "Ġstarea": 5143,
      "ĠMedic": 5144,
      "andÄĥ": 5145,
      "Ġcompus": 5146,
      "Ġamenin": 5147,
      "Ġpicioare": 5148,
      "olÄĥ": 5149,
      "ĠKiev": 5150,
      "ĠÈĽÄĥrile": 5151,
      "Ġed": 5152,
      "Ġacti": 5153,
      "ctivÄĥ": 5154,
      "ĠStatelor": 5155,
      "Ġfundament": 5156,
      "ĠBerlin": 5157,
      "Ġspecifice": 5158,
      "Ġverde": 5159,
      "Ġbuget": 5160,
      "scrip": 5161,
      "ware": 5162,
      "Ġcomanda": 5163,
      "Ġsatele": 5164,
      "Ġprece": 5165,
      "cilÄĥ": 5166,
      "ĠAli": 5167,
      "Ġzeci": 5168,
      "vest": 5169,
      "rez": 5170,
      "ĠÃ®ncerc": 5171,
      "Ġacuzat": 5172,
      "ĠÃ®nregistrat": 5173,
      "cuta": 5174,
      "ĠesenÈĽi": 5175,
      "entului": 5176,
      "ĠnumitÄĥ": 5177,
      "ĠmÄĥnÄĥsti": 5178,
      "Ġeliber": 5179,
      "Ġ45": 5180,
      "Ġsac": 5181,
      "ĠplÃ¢n": 5182,
      "Ġ300": 5183,
      "ĠlunÄĥ": 5184,
      "Ġanche": 5185,
      "Ġjur": 5186,
      "ceava": 5187,
      "Ġ1997": 5188,
      "Ġaparten": 5189,
      "ĠDeÈĻi": 5190,
      "Ġfolosesc": 5191,
      "ĠnoÈĻtri": 5192,
      "Ġsez": 5193,
      "Ġceil": 5194,
      "Ġgrec": 5195,
      "Oameni": 5196,
      "ĠPopescu": 5197,
      "deze": 5198,
      "ĠrugÄĥ": 5199,
      "Ġpagina": 5200,
      "Ġocazia": 5201,
      "Ġpoveste": 5202,
      "Ġpreluc": 5203,
      "ĠSpania": 5204,
      "Ġcontextul": 5205,
      "imi": 5206,
      "ĠLau": 5207,
      "Ġserviciile": 5208,
      "ĠafarÄĥ": 5209,
      "Ġstre": 5210,
      "...)": 5211,
      "Ġsimt": 5212,
      "Ġmijlocul": 5213,
      "ĠpoartÄĥ": 5214,
      "ĠcÃ¢ÈĽi": 5215,
      "erciale": 5216,
      "Ġcron": 5217,
      "Eu": 5218,
      "ĠPer": 5219,
      "orica": 5220,
      "Ġtranz": 5221,
      "ctie": 5222,
      "ĠSam": 5223,
      "Ġspital": 5224,
      "gar": 5225,
      "ĠsituaÈĽie": 5226,
      "Ġsuspend": 5227,
      "44": 5228,
      "ĠDel": 5229,
      "ĠRegatul": 5230,
      "Ġrezultat": 5231,
      "CA": 5232,
      "ĠFlo": 5233,
      "Ġalba": 5234,
      "unerea": 5235,
      "ĠOrdin": 5236,
      "Ġrelig": 5237,
      "ĠDrag": 5238,
      "Ġplane": 5239,
      "Ġargum": 5240,
      "cta": 5241,
      "gnost": 5242,
      "Ġzece": 5243,
      "Ġstandard": 5244,
      "Ġdefinitiv": 5245,
      "icle": 5246,
      "ĠCole": 5247,
      "pele": 5248,
      "Ġimperi": 5249,
      "Ġlocalitatea": 5250,
      "Ġsh": 5251,
      "ĠGar": 5252,
      "izor": 5253,
      "Ġperspe": 5254,
      "nia": 5255,
      "Ġspunea": 5256,
      "ĠGuvernului": 5257,
      "ĠprezenÈĽa": 5258,
      "samb": 5259,
      "stem": 5260,
      "ĠEv": 5261,
      "zele": 5262,
      "ĠDÄĥn": 5263,
      "Ġtineri": 5264,
      "ĠtÄĥu": 5265,
      "Ġconsidera": 5266,
      "ĠPon": 5267,
      "ĠDunÄĥ": 5268,
      "ize": 5269,
      "ĠeconomicÄĥ": 5270,
      "lant": 5271,
      "onului": 5272,
      "cere": 5273,
      "sive": 5274,
      "76": 5275,
      "rich": 5276,
      "ovic": 5277,
      "ĠcreÈĻt": 5278,
      "Ġdemoc": 5279,
      "Ġevent": 5280,
      "ĠRoma": 5281,
      "ĠStud": 5282,
      "Ġuri": 5283,
      "Ġcondamnat": 5284,
      "ĠdumneavoastrÄĥ": 5285,
      "ĠobiÈĻn": 5286,
      "ĠCara": 5287,
      "ĠactivitÄĥÈĽi": 5288,
      "teor": 5289,
      "ĠorÄĥ": 5290,
      "ĠPort": 5291,
      "Ġger": 5292,
      "ĠmilitarÄĥ": 5293,
      "ĠBen": 5294,
      "ress": 5295,
      "ĠamericanÄĥ": 5296,
      "Ġsimpt": 5297,
      "ĠmenÈĽion": 5298,
      "yn": 5299,
      "Ġpace": 5300,
      "Ġgrav": 5301,
      "ĠFC": 5302,
      "Ġdul": 5303,
      "Ġzb": 5304,
      "Ġturne": 5305,
      "Ġran": 5306,
      "chen": 5307,
      "ĠAug": 5308,
      "Ġocupat": 5309,
      "ĠFre": 5310,
      "Ġmeto": 5311,
      "Ġtrebuia": 5312,
      "ll": 5313,
      "ĠON": 5314,
      "ĠPrimÄĥ": 5315,
      "Ġafirm": 5316,
      "Ġmaterial": 5317,
      "serÄĥ": 5318,
      "ĠnÄĥ": 5319,
      "ficate": 5320,
      "Ġwith": 5321,
      "Ġstudiu": 5322,
      "TR": 5323,
      "Ġproiectului": 5324,
      "Ion": 5325,
      "Ġveche": 5326,
      "oÈĻtin": 5327,
      "Ġprezenta": 5328,
      "ĠajutÄĥ": 5329,
      "Ġkilomet": 5330,
      "wit": 5331,
      "Ġturn": 5332,
      "ĠsÃ¢mbÄĥtÄĥ": 5333,
      "ĠaÈĽi": 5334,
      "Ġcod": 5335,
      "ĠreÃ®n": 5336,
      "ĠadÃ¢n": 5337,
      "Ġdescrie": 5338,
      "UG": 5339,
      "Ġparcursul": 5340,
      "ĠVa": 5341,
      "Ġhotel": 5342,
      "ĠaÈĻ": 5343,
      "Ġrevi": 5344,
      "Ġvreau": 5345,
      "xi": 5346,
      "ĠVÄĥ": 5347,
      "ulelor": 5348,
      "Ġconserv": 5349,
      "ĠLondra": 5350,
      "ĠsÄĥptÄĥmÃ¢nÄĥ": 5351,
      "ĠmÄĥcar": 5352,
      "Ġcampion": 5353,
      "icu": 5354,
      "olf": 5355,
      "ĠJap": 5356,
      "Ġtin": 5357,
      "Ġproblemele": 5358,
      "zate": 5359,
      "ĠArad": 5360,
      "Ġscul": 5361,
      "tena": 5362,
      "ames": 5363,
      "cic": 5364,
      "ĠÃ®mpÄĥrÈĽi": 5365,
      "Ġefecte": 5366,
      "ons": 5367,
      "ĠDirec": 5368,
      "cord": 5369,
      "Ġoare": 5370,
      "nes": 5371,
      "ĠVictor": 5372,
      "Ġcalea": 5373,
      "Ġaflate": 5374,
      "ologii": 5375,
      "38": 5376,
      "lax": 5377,
      "Ġrealizate": 5378,
      "Ġexclusiv": 5379,
      "ĠhotÄĥrÃ¢": 5380,
      "ĠPo": 5381,
      "Ġdron": 5382,
      "ĠPetre": 5383,
      "Ġcapitala": 5384,
      "strÄĥ": 5385,
      "Ġgas": 5386,
      "Ġstea": 5387,
      "Ġpiese": 5388,
      "ĠPopul": 5389,
      "Ġ1991": 5390,
      "ĠPolit": 5391,
      "Ġcone": 5392,
      "Ġacumul": 5393,
      "Ġvrut": 5394,
      "ÈĽu": 5395,
      "ĠUnit": 5396,
      "ĠApoi": 5397,
      "fil": 5398,
      "ated": 5399,
      "Ġrealitate": 5400,
      "ĠBro": 5401,
      "ĠSuceava": 5402,
      "ĠBogdan": 5403,
      "36": 5404,
      "Ġarme": 5405,
      "ĠrÄĥzboiul": 5406,
      "ustit": 5407,
      "ĠsearÄĥ": 5408,
      "Ġapropiere": 5409,
      "ĠdistanÈĽÄĥ": 5410,
      "acteri": 5411,
      "ĠOrban": 5412,
      "ĠInstitutul": 5413,
      "Ġplata": 5414,
      "sula": 5415,
      "Ġfusese": 5416,
      "ĠLo": 5417,
      "Ġ1940": 5418,
      "Ġcomerciale": 5419,
      "ĠRomÃ¢nÄĥ": 5420,
      "parlament": 5421,
      "Ġcompeten": 5422,
      "74": 5423,
      "ps": 5424,
      "cesul": 5425,
      "Ġdemocrat": 5426,
      "Ġcercetare": 5427,
      "Ġcos": 5428,
      "Ġtau": 5429,
      "Ġdezvoltat": 5430,
      "ĠPoate": 5431,
      "Ġpreveni": 5432,
      "jan": 5433,
      "ras": 5434,
      "iecare": 5435,
      "ĠSov": 5436,
      "ĠÃ®nve": 5437,
      "ĠHol": 5438,
      "ĠÃ®ntotdeauna": 5439,
      "itudinea": 5440,
      "Ġsuficient": 5441,
      "Ġarticolul": 5442,
      "ÈĽiuni": 5443,
      "Ġinseamna": 5444,
      "ĠtÃ¢n": 5445,
      "Ġfizice": 5446,
      "Ġmelod": 5447,
      "Ġtrebuit": 5448,
      "inc": 5449,
      "ĠVas": 5450,
      "Ġputeti": 5451,
      "Ġsubstan": 5452,
      "DM": 5453,
      "reme": 5454,
      "Ġconstituie": 5455,
      "Ġdeloc": 5456,
      "Ġplin": 5457,
      "Ġcompeti": 5458,
      "Ġduc": 5459,
      "ĠacÈĽiuni": 5460,
      "viz": 5461,
      "Ġarh": 5462,
      "ĠÃ®ntoarce": 5463,
      "ĠChiar": 5464,
      "Ġfinanciare": 5465,
      "ĠSta": 5466,
      "Ġstrat": 5467,
      "ĠMihail": 5468,
      "umit": 5469,
      "ficial": 5470,
      "dina": 5471,
      "ĠcreÈĻtin": 5472,
      "Ġinternet": 5473,
      "ĠWilliam": 5474,
      "ateazÄĥ": 5475,
      "Ġpui": 5476,
      "Ġrepar": 5477,
      "rolog": 5478,
      "rÃ¢": 5479,
      "Ġdic": 5480,
      "ĠEduc": 5481,
      "Ġsalv": 5482,
      "ĠDor": 5483,
      "iss": 5484,
      "ĠNoi": 5485,
      "Ġ2023": 5486,
      "Ġdeoseb": 5487,
      "Ġcapacitatea": 5488,
      "cov": 5489,
      "ĠSue": 5490,
      "Ġjudici": 5491,
      "Ġ1995": 5492,
      "ĠToate": 5493,
      "ĠStan": 5494,
      "Ġvreun": 5495,
      "ĠrecunoaÈĻte": 5496,
      "ĠscÄĥzut": 5497,
      "Ġasocia": 5498,
      "lope": 5499,
      "Ġblog": 5500,
      "undÄĥ": 5501,
      "Ġinferi": 5502,
      "ĠDob": 5503,
      "Ġfinalul": 5504,
      "Ġdosarul": 5505,
      "ĠapÄĥrare": 5506,
      "ĠDavid": 5507,
      "Ġdrepturile": 5508,
      "ĠÃ®nalt": 5509,
      "bon": 5510,
      "loace": 5511,
      "mare": 5512,
      "Ġzbor": 5513,
      "ĠCro": 5514,
      "Ġmagaz": 5515,
      "estiv": 5516,
      "ĠDonald": 5517,
      "Ġsingurul": 5518,
      "Ġcunoscute": 5519,
      "Ġvigoare": 5520,
      "gariei": 5521,
      "Ġacelea": 5522,
      "prezent": 5523,
      "tiei": 5524,
      "Ġconcu": 5525,
      "ÈĽionar": 5526,
      "Ġpermit": 5527,
      "Ġbru": 5528,
      "Ġfilmul": 5529,
      "ĠaparÈĽin": 5530,
      "Ġsele": 5531,
      "ĠBrÄĥ": 5532,
      "Ġavi": 5533,
      "Ġatribu": 5534,
      "ĠatenÈĽia": 5535,
      "2000": 5536,
      "RÄĥ": 5537,
      "Ġdeplas": 5538,
      "Ġvara": 5539,
      "Ġpresa": 5540,
      "ÈĻeÈĻte": 5541,
      "Ġlumina": 5542,
      "Ġgrupul": 5543,
      "ĠFer": 5544,
      "Ġdecl": 5545,
      "uli": 5546,
      "Ġrece": 5547,
      "ast": 5548,
      "Ġprot": 5549,
      "ogle": 5550,
      "Ġtreia": 5551,
      "Ġ1994": 5552,
      "Ġpublicate": 5553,
      "ĠFranÈĽei": 5554,
      "ĠspaÈĽiul": 5555,
      "Ġatmos": 5556,
      "Ġoccident": 5557,
      "ĠSfÃ¢ntul": 5558,
      "95": 5559,
      "ĠechipÄĥ": 5560,
      "onom": 5561,
      "erva": 5562,
      "Ġcapul": 5563,
      "Media": 5564,
      "ĠspaÈĽiu": 5565,
      "ĠÈĻedin": 5566,
      "ĠÃ®nvin": 5567,
      "isticÄĥ": 5568,
      "Ġgratuit": 5569,
      "Ġindependen": 5570,
      "Ur": 5571,
      "Ġrot": 5572,
      "Napoca": 5573,
      "Ġcalitatea": 5574,
      "ĠCei": 5575,
      "vale": 5576,
      "Ġbiserici": 5577,
      "ĠAF": 5578,
      "Ġtreilea": 5579,
      "Ġviitorul": 5580,
      "ĠafirmÄĥ": 5581,
      "ĠDÄĥncilÄĥ": 5582,
      "rurg": 5583,
      "Ġsubiect": 5584,
      "ĠridicÄĥ": 5585,
      "ATE": 5586,
      "nÄĥtÄĥÈĽii": 5587,
      "Ġobiecte": 5588,
      "Ġfic": 5589,
      "ĠlimbÄĥ": 5590,
      "Ġpasa": 5591,
      "Ġfaptului": 5592,
      "tional": 5593,
      "ĠNici": 5594,
      "Ġapropierea": 5595,
      "BC": 5596,
      "ĠBot": 5597,
      "Ġteatru": 5598,
      "Ġdiscut": 5599,
      "ografice": 5600,
      "xelles": 5601,
      "OT": 5602,
      "escu": 5603,
      "atelor": 5604,
      "Ġgh": 5605,
      "Ġaltul": 5606,
      "ĠParlamentului": 5607,
      "raÈĽii": 5608,
      "ĠÃ®ntÃ¢i": 5609,
      "ctiva": 5610,
      "Ġlocalitate": 5611,
      "Ġindustria": 5612,
      "nei": 5613,
      "Ġâ": 5614,
      "Ġrege": 5615,
      "ĠrecensÄĥmÃ¢ntului": 5616,
      "Ġsuma": 5617,
      "Ġepiscop": 5618,
      "Biografie": 5619,
      "bie": 5620,
      "zeazÄĥ": 5621,
      "ĠocupÄĥ": 5622,
      "ĠbÄĥrbat": 5623,
      "Da": 5624,
      "orile": 5625,
      "oturi": 5626,
      "ĠNi": 5627,
      "2008": 5628,
      "Ġgrade": 5629,
      "Ġintreb": 5630,
      "gredi": 5631,
      "ĠinfracÈĽi": 5632,
      "ĠtatÄĥl": 5633,
      "pen": 5634,
      "ĠvÄĥd": 5635,
      "ĠPetru": 5636,
      "Ġnerv": 5637,
      "ĠCost": 5638,
      "ĠTa": 5639,
      "Ġsenz": 5640,
      "Istoric": 5641,
      "Ġcite": 5642,
      "Ġmembre": 5643,
      "Ġdorit": 5644,
      "ĠScri": 5645,
      "Ġimpotriva": 5646,
      "Ġreglement": 5647,
      "Fe": 5648,
      "let": 5649,
      "Ġrelax": 5650,
      "lorin": 5651,
      "Ġtrase": 5652,
      "ĠÃ®ncheiat": 5653,
      "Ġfilosof": 5654,
      "Ġepis": 5655,
      "ĠapartenenÈĽa": 5656,
      "inÈĽele": 5657,
      "ĠNum": 5658,
      "tivÄĥ": 5659,
      "Ġactri": 5660,
      "ĠDrept": 5661,
      "ĠsoÈĽia": 5662,
      "ĠEconom": 5663,
      "vem": 5664,
      "Ġarest": 5665,
      "ronom": 5666,
      "ĠconstruitÄĥ": 5667,
      "mor": 5668,
      "Ġrelativ": 5669,
      "ĠCraiova": 5670,
      "Ġgata": 5671,
      "ĠcÄĥruia": 5672,
      "Ġrecon": 5673,
      "Ġ150": 5674,
      "Ġmijloace": 5675,
      "stici": 5676,
      "Ġgene": 5677,
      "ĠÃ®ntru": 5678,
      "Ġsublini": 5679,
      "ĠsocialÄĥ": 5680,
      "asul": 5681,
      "ĠGrig": 5682,
      "Ġspecii": 5683,
      "Ġdeosebit": 5684,
      "AI": 5685,
      "Ġdeza": 5686,
      "Ġprepar": 5687,
      "ĠKlaus": 5688,
      "ĠOrtodox": 5689,
      "55": 5690,
      "Ġalimente": 5691,
      "Ġdocumente": 5692,
      "Nic": 5693,
      "duri": 5694,
      "Ġlucra": 5695,
      "Ġ180": 5696,
      "2006": 5697,
      "ĠconÈĽin": 5698,
      "ĠDaniel": 5699,
      "aliÈĻtii": 5700,
      "matic": 5701,
      "ĠalcÄĥt": 5702,
      "Ġpred": 5703,
      "Ġimagine": 5704,
      "Ġfamilii": 5705,
      "ĠcauzÄĥ": 5706,
      "34": 5707,
      "ologiei": 5708,
      "ĠmenÈĽionat": 5709,
      "Ġcolaborare": 5710,
      "own": 5711,
      "cteazÄĥ": 5712,
      "ĠPers": 5713,
      "oo": 5714,
      "xt": 5715,
      "Ġaspe": 5716,
      "Ġucrainene": 5717,
      "iaÈĽi": 5718,
      "Ġ(âĢŀ": 5719,
      "resc": 5720,
      "ĠfuncÈĽioneazÄĥ": 5721,
      "Scri": 5722,
      "Ġzonele": 5723,
      "Ġdragoste": 5724,
      "cele": 5725,
      "omp": 5726,
      "ĠaveÈĽi": 5727,
      "Ġnoaptea": 5728,
      "Ġpropria": 5729,
      "Ġalco": 5730,
      "Ġparale": 5731,
      "ĠPÃ¢nÄĥ": 5732,
      "Ġconfer": 5733,
      "Ġexpres": 5734,
      "ĠÃ®ndepÄĥr": 5735,
      "urate": 5736,
      "Ġexprim": 5737,
      "Äĥrilor": 5738,
      "ĠbÄĥtÄĥ": 5739,
      "Ġprincipale": 5740,
      "Ġcontempor": 5741,
      "CÃ¢nd": 5742,
      "ĠzÄĥ": 5743,
      "Ġcana": 5744,
      "ĠSer": 5745,
      "ĠprotecÈĽie": 5746,
      "Ġfolosind": 5747,
      "Ġtulb": 5748,
      "ater": 5749,
      "Ġrelat": 5750,
      "ĠEr": 5751,
      "Ġstimul": 5752,
      "ĠBulgaria": 5753,
      "Ġinima": 5754,
      "Ġkilometri": 5755,
      "ĠArge": 5756,
      "Ġambasa": 5757,
      "uis": 5758,
      "ĠpoatÄĥ": 5759,
      "Ġcomplic": 5760,
      "Ġiau": 5761,
      "Ġcompoz": 5762,
      "Ġstabile": 5763,
      "Ġabsolut": 5764,
      "ĠOt": 5765,
      "Ġmuzica": 5766,
      "Ġstrada": 5767,
      "CU": 5768,
      "ĠPiaÈĽa": 5769,
      "ĠTrat": 5770,
      "ĠexperienÈĽÄĥ": 5771,
      "Ġexcelen": 5772,
      "Ġmoderne": 5773,
      "Çİ": 5774,
      "Ġpremierul": 5775,
      "Ġagricult": 5776,
      "apone": 5777,
      "Ġpresupune": 5778,
      "Ġinch": 5779,
      "ĠPi": 5780,
      "Ġmargin": 5781,
      "ĠrelateazÄĥ": 5782,
      "Ġproduselor": 5783,
      "Ġparlamentare": 5784,
      "Ġati": 5785,
      "Ġnecon": 5786,
      "Ġscand": 5787,
      "oza": 5788,
      "ĠdeÈĽine": 5789,
      "bet": 5790,
      "Ġsune": 5791,
      "ĠRevolu": 5792,
      "aptÄĥ": 5793,
      "ĠoficialÄĥ": 5794,
      "ĠstÄĥpÃ¢n": 5795,
      "Ġreferendum": 5796,
      "Ministrul": 5797,
      "Ġsoare": 5798,
      "Ġgand": 5799,
      "Ġaminti": 5800,
      "Ġdosar": 5801,
      "Ġofera": 5802,
      "Ġumane": 5803,
      "Ġtext": 5804,
      "ĠCla": 5805,
      "Ġsecund": 5806,
      "Ġconducere": 5807,
      "veghe": 5808,
      "Ġguvernare": 5809,
      "Ġinfrastruct": 5810,
      "unda": 5811,
      "85": 5812,
      "ĠBucov": 5813,
      "by": 5814,
      "eral": 5815,
      "Ġproc": 5816,
      "cad": 5817,
      "Ġfestiv": 5818,
      "Ġorganizarea": 5819,
      "Ġsensul": 5820,
      "ĠLegea": 5821,
      "ĠdeclanÈĻ": 5822,
      "49": 5823,
      "riarh": 5824,
      "Ġarmatei": 5825,
      "ĠÃ®nÄĥlÈĽi": 5826,
      "Ġsecuri": 5827,
      "ĠSy": 5828,
      "ĠcÄĥreia": 5829,
      "sche": 5830,
      "79": 5831,
      "istic": 5832,
      "osul": 5833,
      "Ġamplas": 5834,
      "gl": 5835,
      "Demografie": 5836,
      "ĠLud": 5837,
      "kov": 5838,
      "ĠAna": 5839,
      "ĠIer": 5840,
      "Istoria": 5841,
      "Ġsuplimentare": 5842,
      "tila": 5843,
      "Ġaleg": 5844,
      "Ġconfrun": 5845,
      "Ġmunte": 5846,
      "!âĢĿ": 5847,
      "intele": 5848,
      "ĠApÄĥ": 5849,
      "istul": 5850,
      "rimoni": 5851,
      "Ġpartidul": 5852,
      "ĠBruxelles": 5853,
      "Ġcro": 5854,
      "olid": 5855,
      "ĠNor": 5856,
      "ĠruseÈĻti": 5857,
      "ĠputernicÄĥ": 5858,
      "Ġaprec": 5859,
      "Ġcelul": 5860,
      "Ġordine": 5861,
      "Ġcas": 5862,
      "Ġmet": 5863,
      "Reg": 5864,
      "Ġpac": 5865,
      "dae": 5866,
      "ĠurmÄĥtoarea": 5867,
      "Ġaveti": 5868,
      "ĠcÄĥrui": 5869,
      "ĠdezvÄĥ": 5870,
      "ĠÃ®nvÄĥÈĽ": 5871,
      "Mo": 5872,
      "ĠAici": 5873,
      "Ġcomuni": 5874,
      "unul": 5875,
      "imentele": 5876,
      "ĠSocie": 5877,
      "Chi": 5878,
      "ĠInform": 5879,
      "Ġ1980": 5880,
      "tarile": 5881,
      "sport": 5882,
      "ietice": 5883,
      "Ġjurnalist": 5884,
      "__": 5885,
      "pon": 5886,
      "Ġesc": 5887,
      "Ġconce": 5888,
      "ĠtrecutÄĥ": 5889,
      "89": 5890,
      "Ġdot": 5891,
      "imentul": 5892,
      "ĠsursÄĥ": 5893,
      "Ġchesti": 5894,
      "ceva": 5895,
      "ĠAmb": 5896,
      "Ġparticul": 5897,
      "Ġtrage": 5898,
      "elenski": 5899,
      "Ġflori": 5900,
      "ĠNU": 5901,
      "Ġgermani": 5902,
      "ĠPartidul": 5903,
      "Ġsuport": 5904,
      "Ġechipei": 5905,
      "ĠvarÄĥ": 5906,
      "ĠÈĻtiinÈĽÄĥ": 5907,
      "Ġsocietate": 5908,
      "Ġregele": 5909,
      "ĠOc": 5910,
      "ĠfÄĥcutÄĥ": 5911,
      "Ġmoarte": 5912,
      "jului": 5913,
      "Ġdistin": 5914,
      "Ġnoastra": 5915,
      "Ġbenefici": 5916,
      "Ġ;": 5917,
      "ĠSat": 5918,
      "ĠRegi": 5919,
      "Ġregelui": 5920,
      "Ġfunctie": 5921,
      "39": 5922,
      "Ġhttp": 5923,
      "conj": 5924,
      "ugen": 5925,
      "Ġschimba": 5926,
      "Ġbugetul": 5927,
      "CC": 5928,
      "Ġarunc": 5929,
      "Ġhidro": 5930,
      "ĠFund": 5931,
      "ĠcÄĥrora": 5932,
      "cÃ¢t": 5933,
      "ence": 5934,
      "Ġip": 5935,
      "Ġsco": 5936,
      "ĠinstituÈĽii": 5937,
      "Ġzilnic": 5938,
      "Ġbut": 5939,
      "ĠanunÈĽÄĥ": 5940,
      "Ġacelasi": 5941,
      "ĠPrimul": 5942,
      "Ġvitam": 5943,
      "ĠromÃ¢nilor": 5944,
      "ĠAustria": 5945,
      "tar": 5946,
      "Ġtru": 5947,
      "ĠPav": 5948,
      "catÄĥ": 5949,
      "Ġaro": 5950,
      "ĠrÄĥni": 5951,
      "Ġcelei": 5952,
      "Ġtelef": 5953,
      "Ġputernice": 5954,
      "âĢľ,": 5955,
      "hal": 5956,
      "ĠAi": 5957,
      "ĠlucreazÄĥ": 5958,
      "37": 5959,
      "Ġautor": 5960,
      "Ġspecific": 5961,
      "Ġfonduri": 5962,
      "Ġcorpul": 5963,
      "Ġdomnul": 5964,
      "Ġresponsabil": 5965,
      "Ð»": 5966,
      "ĠPotrivit": 5967,
      "Ġboli": 5968,
      "Ġtero": 5969,
      "Ġvech": 5970,
      "ĠReuters": 5971,
      "gog": 5972,
      "ĠcapÄĥt": 5973,
      "ĠcÃ¢ÈĽiva": 5974,
      "riu": 5975,
      "Ġbomb": 5976,
      "Ġcontac": 5977,
      "ĠAcestea": 5978,
      "RomÃ¢nia": 5979,
      "xic": 5980,
      "ĠVene": 5981,
      "Ġaprob": 5982,
      "Ġsovie": 5983,
      "ĠSpe": 5984,
      "Ġsaptam": 5985,
      "32": 5986,
      "Ġvazut": 5987,
      "ĠaÈĻtept": 5988,
      "Ġucrainean": 5989,
      "âĢĶ": 5990,
      "ĠServici": 5991,
      "Ra": 5992,
      "ĠBl": 5993,
      "ĠoarÄĥ": 5994,
      "ĠCare": 5995,
      "Ġinterviu": 5996,
      "ĠOlimp": 5997,
      "ĠlÄĥsat": 5998,
      "ĠJean": 5999,
      "Ġbron": 6000,
      "ĠHo": 6001,
      "luri": 6002,
      "inu": 6003,
      "ĠMc": 6004,
      "ĠfolositÄĥ": 6005,
      "Ġnomin": 6006,
      "Ġofi": 6007,
      "Ġdeput": 6008,
      "ĠViena": 6009,
      "Ġtranzac": 6010,
      "ĠCine": 6011,
      "Ġromani": 6012,
      "ĠeuropeanÄĥ": 6013,
      "alin": 6014,
      "tiile": 6015,
      "ube": 6016,
      "guri": 6017,
      "uel": 6018,
      "aren": 6019,
      "ĠVI": 6020,
      "Ġsubie": 6021,
      "Ġcultural": 6022,
      "ĠmaÈĻini": 6023,
      "46": 6024,
      "rirea": 6025,
      "ĠapariÈĽia": 6026,
      "ĠComite": 6027,
      "Ġaduc": 6028,
      "Ġlite": 6029,
      "Ġbuni": 6030,
      "Ġlimbii": 6031,
      "Ġmonument": 6032,
      "ĠDumitru": 6033,
      "ĠpiatrÄĥ": 6034,
      "ĠpÄĥr": 6035,
      "Ġier": 6036,
      "ĠUR": 6037,
      "giul": 6038,
      "Ġintrarea": 6039,
      "Ġfenomen": 6040,
      "delor": 6041,
      "Ġfapte": 6042,
      "Ġeconomic": 6043,
      "ĠproducÈĽie": 6044,
      "ĠlungÄĥ": 6045,
      "Ġansamb": 6046,
      "Ġminori": 6047,
      "Ġstau": 6048,
      "ÈĻului": 6049,
      "Ġsanat": 6050,
      "Ġpronun": 6051,
      "Ġsculpt": 6052,
      "Ġdans": 6053,
      "reci": 6054,
      "Ġelectrice": 6055,
      "ĠbÄĥn": 6056,
      "Zi": 6057,
      "ĠAN": 6058,
      "Ġserviciilor": 6059,
      "tima": 6060,
      "olesc": 6061,
      "Ġ1993": 6062,
      "ĠEra": 6063,
      "ĠDeci": 6064,
      "Ġalin": 6065,
      "ĠDiv": 6066,
      "Ġprivat": 6067,
      "ĠAfrica": 6068,
      "ward": 6069,
      "Ġfar": 6070,
      "Ġapei": 6071,
      "Ġterminat": 6072,
      "rov": 6073,
      "Ġ(...)": 6074,
      "Ġadul": 6075,
      "Ã®r": 6076,
      "ky": 6077,
      "zvol": 6078,
      "ĠCrÄĥ": 6079,
      "dite": 6080,
      "Ġjapone": 6081,
      "pag": 6082,
      "Ġrealizarea": 6083,
      "Ġlinie": 6084,
      "Ġfabric": 6085,
      "CI": 6086,
      "scris": 6087,
      "tenia": 6088,
      "ĠPlo": 6089,
      "Ġrefu": 6090,
      "72": 6091,
      "Ġpiele": 6092,
      "enaj": 6093,
      "oniei": 6094,
      "ĠcunoÈĻtin": 6095,
      "Ġvolum": 6096,
      "Ġrestaur": 6097,
      "01": 6098,
      "onibile": 6099,
      "Ġmagh": 6100,
      "ctori": 6101,
      "ortun": 6102,
      "Ġcartea": 6103,
      "ĠCristian": 6104,
      "lului": 6105,
      "Ġ#": 6106,
      "ney": 6107,
      "Ġ1968": 6108,
      "05": 6109,
      "data": 6110,
      "osibil": 6111,
      "Ġcategoria": 6112,
      "Ġrevista": 6113,
      "ĠÃ®nde": 6114,
      "itari": 6115,
      "ĠBur": 6116,
      "Ġpresedin": 6117,
      "ĠWil": 6118,
      "Ġutilizat": 6119,
      "Ġcampanie": 6120,
      "ĠnumÄĥrÄĥ": 6121,
      "anc": 6122,
      "ĠneÃ®n": 6123,
      "Ġgrad": 6124,
      "bre": 6125,
      "Ġtera": 6126,
      "ĠveÈĽi": 6127,
      "Ġturistice": 6128,
      "Ġfier": 6129,
      "Ġarhe": 6130,
      "Ġacte": 6131,
      "Ġintrodus": 6132,
      "**": 6133,
      "Ġing": 6134,
      "Ġcopilul": 6135,
      "Ġpozitiv": 6136,
      "Ġincre": 6137,
      "Ġlimita": 6138,
      "PE": 6139,
      "Ste": 6140,
      "Ġdova": 6141,
      "ĠdoreÈĻte": 6142,
      "ĠElena": 6143,
      "neÈĻte": 6144,
      "Ġdialog": 6145,
      "olele": 6146,
      "Ġinfract": 6147,
      "Ġdovedit": 6148,
      "ĠediÈĽie": 6149,
      "ĠCanada": 6150,
      "Ġfim": 6151,
      "Ġrefuzat": 6152,
      "Ġcorpului": 6153,
      "ĠDie": 6154,
      "usine": 6155,
      "gram": 6156,
      "Ġmoldov": 6157,
      "ĠsÃ¢r": 6158,
      "ĠBuda": 6159,
      "stemul": 6160,
      "Ġpedep": 6161,
      "ĠAra": 6162,
      "Ġdiferi": 6163,
      "Ġintal": 6164,
      "ĠnecesarÄĥ": 6165,
      "Ġvorbim": 6166,
      "oader": 6167,
      "ĠfoloseÈĻte": 6168,
      "Ġastea": 6169,
      "Ġope": 6170,
      "Ġtar": 6171,
      "ĠSus": 6172,
      "Ġsisteme": 6173,
      "Ġvicepre": 6174,
      "Ġmut": 6175,
      "Ġcup": 6176,
      "Ġrepro": 6177,
      "cine": 6178,
      "Ġizol": 6179,
      "zu": 6180,
      "Ġpreocu": 6181,
      "Ġcomunist": 6182,
      "Ġcif": 6183,
      "Ġmandat": 6184,
      "Ġidei": 6185,
      "Ġtratamentul": 6186,
      "umesc": 6187,
      "Ġinvent": 6188,
      "ĠTurcia": 6189,
      "83": 6190,
      "Ġscoate": 6191,
      "vis": 6192,
      "ĠRÃ¢": 6193,
      "Ġsocietatea": 6194,
      "ĠRomaniei": 6195,
      "ĠAS": 6196,
      "Ġ1944": 6197,
      "rita": 6198,
      "Ġinim": 6199,
      "Ġelement": 6200,
      "Au": 6201,
      "RL": 6202,
      "Ġconcept": 6203,
      "ĠsituatÄĥ": 6204,
      "Ġreferitoare": 6205,
      "mitÄĥ": 6206,
      "Ġol": 6207,
      "ĠSub": 6208,
      "ĠChe": 6209,
      "Ġrepublic": 6210,
      "ĠâĢĺ": 6211,
      "Ġcrearea": 6212,
      "Ġuit": 6213,
      "Ġrug": 6214,
      "Ġsudul": 6215,
      "Ġvala": 6216,
      "Ġferici": 6217,
      "Ġdesfiin": 6218,
      "ropolit": 6219,
      "Ġlungime": 6220,
      "ĠGrecia": 6221,
      "Ġevre": 6222,
      "Ġfrecvent": 6223,
      "Ġecran": 6224,
      "ĠOUG": 6225,
      "ĠAugust": 6226,
      "Ġmm": 6227,
      "Ġincat": 6228,
      "Ġapelor": 6229,
      "Ġadoptat": 6230,
      "Ġmanifest": 6231,
      "ĠÃ®nlocu": 6232,
      "unta": 6233,
      "aniile": 6234,
      "ĠlargÄĥ": 6235,
      "ĠmÃ¢nÄĥ": 6236,
      "cile": 6237,
      "alizatÄĥ": 6238,
      "enÈĽe": 6239,
      "ĠnaÈĻtere": 6240,
      "ĠTotuÈĻi": 6241,
      "Ġinterv": 6242,
      "Ġdisponibile": 6243,
      "ĠscurtÄĥ": 6244,
      "Ġauzit": 6245,
      "hael": 6246,
      "Ġsursa": 6247,
      "xe": 6248,
      "pei": 6249,
      "Ġutil": 6250,
      "Ġpiata": 6251,
      "Ġexperiment": 6252,
      "ĠpracticÄĥ": 6253,
      "ĠHid": 6254,
      "ĠpÄĥre": 6255,
      "As": 6256,
      "stein": 6257,
      "ĠMart": 6258,
      "Ġpotriv": 6259,
      "imat": 6260,
      "Ãİntr": 6261,
      "ĠasemÄĥn": 6262,
      "Ġrezultatul": 6263,
      "71": 6264,
      "Ġcuri": 6265,
      "urie": 6266,
      "2005": 6267,
      "Alexand": 6268,
      "ĠÃ®naintea": 6269,
      "500": 6270,
      "Av": 6271,
      "Ġcererea": 6272,
      "Administ": 6273,
      "Ġdesemn": 6274,
      "ĠPubl": 6275,
      "seze": 6276,
      "Ġdesf": 6277,
      "ĠÃİmp": 6278,
      "Ġparten": 6279,
      "Ġsenti": 6280,
      "OL": 6281,
      "ĠÃ®nconj": 6282,
      "Ġcaf": 6283,
      "Ġanex": 6284,
      "MÄĥ": 6285,
      "Ġexist": 6286,
      "ĠFot": 6287,
      "ĠslÄĥ": 6288,
      "ath": 6289,
      "ĠTo": 6290,
      "orman": 6291,
      "media": 6292,
      "Ġfunction": 6293,
      "Ġpostul": 6294,
      "Ġcoresp": 6295,
      "ocol": 6296,
      "lag": 6297,
      "ĠgeneralÄĥ": 6298,
      "Ġinvestig": 6299,
      "Ġrezultatele": 6300,
      "Ġarata": 6301,
      "ĠVÃ¢l": 6302,
      "indic": 6303,
      "ĠÃ®ncredere": 6304,
      "gipt": 6305,
      "2007": 6306,
      "ĠTudor": 6307,
      "zÄĥtor": 6308,
      "Ġcurent": 6309,
      "Ġgrupului": 6310,
      "Ġpreluat": 6311,
      "ĠPremiul": 6312,
      "coli": 6313,
      "Ġcui": 6314,
      "ĠCru": 6315,
      "opol": 6316,
      "Ġfilozof": 6317,
      "ÈĻie": 6318,
      "Ġbolna": 6319,
      "Ph": 6320,
      "dure": 6321,
      "ĠsÄĥnÄĥt": 6322,
      "anÈĽilor": 6323,
      "Ġvoc": 6324,
      "ĠsituaÈĽii": 6325,
      "ĠÃ®nÈĽeles": 6326,
      "ĠMunÈĽii": 6327,
      "Ġintelect": 6328,
      "Cl": 6329,
      "ĠcurÄĥ": 6330,
      "ott": 6331,
      "Ġdiplomat": 6332,
      "cilor": 6333,
      "wn": 6334,
      "ĠprezidenÈĽiale": 6335,
      "ĠangajaÈĽi": 6336,
      "ĠinvestiÈĽii": 6337,
      "Ġrecunoscut": 6338,
      "Ġunic": 6339,
      "gement": 6340,
      "Ġdiagnost": 6341,
      "ĠlocalÄĥ": 6342,
      "Despre": 6343,
      "ĠÃ®ntreprin": 6344,
      "ĠÃ®ncu": 6345,
      "Ġvoast": 6346,
      "Ġreducerea": 6347,
      "ĠÃİnsÄĥ": 6348,
      "Ġtendin": 6349,
      "Ġsemin": 6350,
      "ĠÃ®ntÃ¢mplat": 6351,
      "ĠpoziÈĽie": 6352,
      "68": 6353,
      "Pa": 6354,
      "Ġtun": 6355,
      "imna": 6356,
      "ĠfizicÄĥ": 6357,
      "Ġimo": 6358,
      "Ġevident": 6359,
      "Ġapreci": 6360,
      "Ġelectric": 6361,
      "fes": 6362,
      "ction": 6363,
      "Ġtermenul": 6364,
      "Ġaerop": 6365,
      "ĠbÄĥrbaÈĽi": 6366,
      "Ġinstrument": 6367,
      "ĠDia": 6368,
      "Ġlanga": 6369,
      "ĠAir": 6370,
      "Ġ1950": 6371,
      "Ġamenaj": 6372,
      "Ġbaie": 6373,
      "Ġfinanciar": 6374,
      "zatÄĥ": 6375,
      "Ġtema": 6376,
      "Ã®nt": 6377,
      "Ġprofil": 6378,
      "ĠJudeÈĽean": 6379,
      "ĠPrima": 6380,
      "ĠjudecatÄĥ": 6381,
      "Ġconflict": 6382,
      "Ġmanu": 6383,
      "Ġbile": 6384,
      "Ġstic": 6385,
      "Ġreprezinta": 6386,
      "ĠÃ®nloc": 6387,
      "ĠsimÈĽi": 6388,
      "Ġfirma": 6389,
      "Ðº": 6390,
      "ĠsÃ¢nge": 6391,
      "Membri": 6392,
      "Ġpul": 6393,
      "ÈĽel": 6394,
      "ĠAtunci": 6395,
      "IB": 6396,
      "gea": 6397,
      "Ġdura": 6398,
      "ĠMajoritatea": 6399,
      "ĠstrÄĥinÄĥtate": 6400,
      "IV": 6401,
      "ny": 6402,
      "onic": 6403,
      "Ġsuferit": 6404,
      "Ġeuropeni": 6405,
      "voarea": 6406,
      "Ġgenerale": 6407,
      "Ġ2024": 6408,
      "ĠInternaÈĽional": 6409,
      "endent": 6410,
      "ieticÄĥ": 6411,
      "ĠVest": 6412,
      "Ġpropor": 6413,
      "amne": 6414,
      "ĠBre": 6415,
      "ĠfuncÈĽii": 6416,
      "Ġcultura": 6417,
      "Euro": 6418,
      "ĠÃ®napoi": 6419,
      "Sub": 6420,
      "io": 6421,
      "arat": 6422,
      "ĠMy": 6423,
      "ĠDra": 6424,
      "Ġtempor": 6425,
      "ICI": 6426,
      "inilor": 6427,
      "Ġbil": 6428,
      "Ġfemin": 6429,
      "Ġmonitori": 6430,
      "Sch": 6431,
      "zar": 6432,
      "Ġcolo": 6433,
      "ocÈĻi": 6434,
      "ĠForm": 6435,
      "Ġminte": 6436,
      "Ġkg": 6437,
      "Ġdevenind": 6438,
      "pit": 6439,
      "ostul": 6440,
      "Ġcomer": 6441,
      "Ġreclam": 6442,
      "Ġcolor": 6443,
      "Ġdese": 6444,
      "Ġcomen": 6445,
      "Ġargin": 6446,
      "Ġchirurg": 6447,
      "Ġgradul": 6448,
      "untem": 6449,
      "Ġafluent": 6450,
      "ĠRich": 6451,
      "Ġstele": 6452,
      "ĠpuÈĽine": 6453,
      "ficiale": 6454,
      "And": 6455,
      "Ġlinia": 6456,
      "88": 6457,
      "ĠMuzeul": 6458,
      "Ġine": 6459,
      "Ġconsul": 6460,
      "Ġcome": 6461,
      "ĠExistÄĥ": 6462,
      "Ġpoporului": 6463,
      "Ġ1970": 6464,
      "Ġrul": 6465,
      "ĠDon": 6466,
      "ĠlocalitÄĥÈĽii": 6467,
      "ĠmaÈĻinÄĥ": 6468,
      "Ġpericul": 6469,
      "fie": 6470,
      "ĠImp": 6471,
      "ĠÃ®mpie": 6472,
      "bol": 6473,
      "enul": 6474,
      "Ġaltceva": 6475,
      "2001": 6476,
      "Ġgura": 6477,
      "cÄĥrii": 6478,
      "Ġdeputat": 6479,
      "ĠmoÈĻte": 6480,
      "Ġclasi": 6481,
      "96": 6482,
      "tere": 6483,
      "enden": 6484,
      "Ġtron": 6485,
      "ĠmulÈĽum": 6486,
      "Ġfrumoase": 6487,
      "ĠJurn": 6488,
      "Ġmedicamente": 6489,
      "ĠTrebuie": 6490,
      "Num": 6491,
      "oj": 6492,
      "ĠPrincip": 6493,
      "mina": 6494,
      "uturi": 6495,
      "Ġavion": 6496,
      "Ġscos": 6497,
      "ĠÃ®ncÄĥr": 6498,
      "ĠlucrÄĥrile": 6499,
      "rÄĥri": 6500,
      "Ġobiective": 6501,
      "Ġstoc": 6502,
      "Ġvinov": 6503,
      "ĠsfÃ¢rÈĻit": 6504,
      "ĠCurÈĽii": 6505,
      "ĠDoilea": 6506,
      "Ġorg": 6507,
      "Ġautomat": 6508,
      "Ġangajat": 6509,
      "scriere": 6510,
      "stia": 6511,
      "siunii": 6512,
      "Ġfolosirea": 6513,
      "ĠliteraturÄĥ": 6514,
      "En": 6515,
      "italul": 6516,
      "Ġpetrece": 6517,
      "Ġimpreuna": 6518,
      "Ġdr": 6519,
      "ĠpÄĥcate": 6520,
      "usiness": 6521,
      "rata": 6522,
      "stro": 6523,
      "Ġvaria": 6524,
      "steri": 6525,
      "Ġrog": 6526,
      "ĠrÄĥzb": 6527,
      "buc": 6528,
      "hÄĥ": 6529,
      "hova": 6530,
      "uiascÄĥ": 6531,
      "Ġsuperior": 6532,
      "Ġelabor": 6533,
      "Ġmeta": 6534,
      "Ġtravers": 6535,
      "ĠMad": 6536,
      "ĠFrance": 6537,
      "Ġaplica": 6538,
      "Ġbeneficia": 6539,
      "ferÄĥ": 6540,
      "Äĩ": 6541,
      "ĠÃ®mprum": 6542,
      "ĠParchet": 6543,
      "ĠsoluÈĽii": 6544,
      "vÃ¢r": 6545,
      "Ġcurat": 6546,
      "Ġautost": 6547,
      "ctia": 6548,
      "ĠacÈĽion": 6549,
      "Ġonoare": 6550,
      "Ġsimilare": 6551,
      "ospodÄĥri": 6552,
      "sescu": 6553,
      "iva": 6554,
      "ĠromÃ¢nii": 6555,
      "zÄĥtoare": 6556,
      "Ġincen": 6557,
      "Ul": 6558,
      "ĠunitÄĥÈĽi": 6559,
      "ĠPie": 6560,
      "2002": 6561,
      "Ġrespi": 6562,
      "42": 6563,
      "Ġextern": 6564,
      "Ġlocului": 6565,
      "ĠexistenÈĽa": 6566,
      "ĠArgeÈĻ": 6567,
      "ĠApÄĥrÄĥrii": 6568,
      "teÈĻte": 6569,
      "Ġpale": 6570,
      "eaua": 6571,
      "Ġanual": 6572,
      "Cre": 6573,
      "Ġbas": 6574,
      "any": 6575,
      "Ġmone": 6576,
      "Ġcertific": 6577,
      "Ġvideoc": 6578,
      "Ġitalian": 6579,
      "47": 6580,
      "amilia": 6581,
      "Ġreflect": 6582,
      "nist": 6583,
      "ĠformeazÄĥ": 6584,
      "ĠcurÃ¢nd": 6585,
      "ctare": 6586,
      "Ġoportun": 6587,
      "Ġrefor": 6588,
      "Ġucraineni": 6589,
      "ĠCame": 6590,
      "RÃ¢ul": 6591,
      "ĠALDE": 6592,
      "Ġgermane": 6593,
      "Ġfoto": 6594,
      "ĠSil": 6595,
      "Ġdreptate": 6596,
      "ĠZelenski": 6597,
      "Rez": 6598,
      "ĠceilalÈĽi": 6599,
      "Tran": 6600,
      "Ġnav": 6601,
      "Ġintera": 6602,
      "ĠaÈĻteaptÄĥ": 6603,
      "Ġfructe": 6604,
      "Ve": 6605,
      "uiÈĽi": 6606,
      "ovesi": 6607,
      "Ġnatura": 6608,
      "ĠÈĽe": 6609,
      "1996": 6610,
      "Ġdurata": 6611,
      "DMR": 6612,
      "caÈĽi": 6613,
      "uratÄĥ": 6614,
      "ĠPan": 6615,
      "usa": 6616,
      "ĠdevinÄĥ": 6617,
      "ĠCrÄĥciun": 6618,
      "ĠFa": 6619,
      "ĠRadio": 6620,
      "Ġsupravie": 6621,
      "Ġext": 6622,
      "ĠNob": 6623,
      "ĠCÃ¢mp": 6624,
      "Ġreale": 6625,
      "ĠSing": 6626,
      "ĠactivitÄĥÈĽii": 6627,
      "Ġcamere": 6628,
      "Ġdetali": 6629,
      "ĠAlex": 6630,
      "ĠjudeÈĽ": 6631,
      "ĠmÄĥrturi": 6632,
      "Cea": 6633,
      "gura": 6634,
      "Ġgrupuri": 6635,
      "eek": 6636,
      "Ġcitat": 6637,
      "ĠRos": 6638,
      "Ġgrave": 6639,
      "ĠjoacÄĥ": 6640,
      "ciclope": 6641,
      "UI": 6642,
      "Ġfrag": 6643,
      "Ġnutri": 6644,
      "Ġdisc": 6645,
      "ĠÃ®nsoÈĽi": 6646,
      "66": 6647,
      "ĠXVIII": 6648,
      "witter": 6649,
      "Ġsubliniat": 6650,
      "ĠCore": 6651,
      "Ġactive": 6652,
      "Ġreprezentat": 6653,
      "ĠDeput": 6654,
      "Ġreform": 6655,
      "Ġ1918": 6656,
      "Ġlider": 6657,
      "Prima": 6658,
      "Ġdimensiuni": 6659,
      "tice": 6660,
      "Ġcredit": 6661,
      "Ab": 6662,
      "hat": 6663,
      "Ġstie": 6664,
      "DeÈĻi": 6665,
      "ĠCentrul": 6666,
      "tÄĥrile": 6667,
      "alei": 6668,
      "forme": 6669,
      "ĠAnglia": 6670,
      "Ġrachete": 6671,
      "Ġdai": 6672,
      "Ġcapt": 6673,
      "ricul": 6674,
      "Ġintens": 6675,
      "ĠcondusÄĥ": 6676,
      "ugh": 6677,
      "Ġvina": 6678,
      "ĠnumeÈĻte": 6679,
      "Ġlimbi": 6680,
      "icalÄĥ": 6681,
      "ĠFestiv": 6682,
      "ĠGoogle": 6683,
      "Ġcentral": 6684,
      "voi": 6685,
      "Ġsectorul": 6686,
      "ĠCSM": 6687,
      "Ġfiica": 6688,
      "ĠTÃ¢rgu": 6689,
      "Ġfavori": 6690,
      "sec": 6691,
      "scar": 6692,
      "Ġexerci": 6693,
      "atorie": 6694,
      "Ġdeosebire": 6695,
      "ĠÃ®ngrijor": 6696,
      "Ġinformatii": 6697,
      "Ġpopulare": 6698,
      "Ġpenale": 6699,
      "ĠsolicitÄĥ": 6700,
      "ĠrecensÄĥmÃ¢ntul": 6701,
      "Ġnordul": 6702,
      "ĠgrÄĥdin": 6703,
      "Ġcredinci": 6704,
      "Ġdefini": 6705,
      "wa": 6706,
      "sivÄĥ": 6707,
      "gerii": 6708,
      "Ġdiscip": 6709,
      "ĠÃİntr": 6710,
      "ĠJustiÈĽie": 6711,
      "Ġmacar": 6712,
      "Ġconsolid": 6713,
      "AceastÄĥ": 6714,
      "Ġsezonul": 6715,
      "ald": 6716,
      "lande": 6717,
      "ĠPrintre": 6718,
      "ĠBuzÄĥ": 6719,
      "Ġmalul": 6720,
      "Ġgaran": 6721,
      "ĠJustiÈĽiei": 6722,
      "ĠAFP": 6723,
      "ĠCO": 6724,
      "sed": 6725,
      "ationale": 6726,
      "Ġaband": 6727,
      "ĠjustiÈĽiei": 6728,
      "ford": 6729,
      "ĠVir": 6730,
      "Ġtipul": 6731,
      "Ġcitit": 6732,
      "PA": 6733,
      "RA": 6734,
      "ĠFlori": 6735,
      "Ġlegat": 6736,
      "ĠToader": 6737,
      "Ġcresc": 6738,
      "Institutul": 6739,
      "100": 6740,
      "ĠBla": 6741,
      "Ġtreaba": 6742,
      "seascÄĥ": 6743,
      "ĠdeÈĽinut": 6744,
      "ĠCas": 6745,
      "zÄĥri": 6746,
      "Ġveti": 6747,
      "Ġscrise": 6748,
      "Ġregiunii": 6749,
      "ĠOradea": 6750,
      "PÄĥ": 6751,
      "nii": 6752,
      "lei": 6753,
      "cus": 6754,
      "Ġprotest": 6755,
      "antului": 6756,
      "Ġwww": 6757,
      "Ġculturale": 6758,
      "Alte": 6759,
      "ĠÃ®mbrÄĥ": 6760,
      "ĠortodocÈĻi": 6761,
      "Ġmodelul": 6762,
      "ez": 6763,
      "Ġmil": 6764,
      "alim": 6765,
      "Ġsolid": 6766,
      "ĠFacultatea": 6767,
      "uk": 6768,
      "Ġderi": 6769,
      "ĠKar": 6770,
      "Ġsupraveghe": 6771,
      "ĠmiÈĻcare": 6772,
      "Ci": 6773,
      "Dep": 6774,
      "ĠnaturÄĥ": 6775,
      "Ġdorm": 6776,
      "Ġnen": 6777,
      "Ġimposibil": 6778,
      "Ġ1941": 6779,
      "Ġcalen": 6780,
      "ĠBor": 6781,
      "Ġstatele": 6782,
      "nirea": 6783,
      "Ġutilizate": 6784,
      "Ġvarianta": 6785,
      "ĠdesfÄĥÈĻoarÄĥ": 6786,
      ".\"": 6787,
      "Ġprofesional": 6788,
      "Sursa": 6789,
      "Ġreuni": 6790,
      "ĠNeam": 6791,
      "Ġdirectorul": 6792,
      "ĠÃ®ntÃ¢lnit": 6793,
      "ĠAndre": 6794,
      "ĠNational": 6795,
      "irul": 6796,
      "CÃ¢": 6797,
      "ĠDomnul": 6798,
      "ĠFlorin": 6799,
      "Jo": 6800,
      "tÄĥm": 6801,
      "ileni": 6802,
      "ĠsuprafaÈĽa": 6803,
      "ĠEgipt": 6804,
      "Ġcapital": 6805,
      "ĠHam": 6806,
      "ĠWorld": 6807,
      "ĠYou": 6808,
      "ĠsocietÄĥÈĽii": 6809,
      "ĠmÃ¢na": 6810,
      "Ġfrom": 6811,
      "2003": 6812,
      "Ġfemeile": 6813,
      "Ġcamera": 6814,
      "Ġpericol": 6815,
      "Op": 6816,
      "TV": 6817,
      "Ġlasa": 6818,
      "ĠCos": 6819,
      "Ġconta": 6820,
      "yl": 6821,
      "zilor": 6822,
      "Ġnop": 6823,
      "ĠDesi": 6824,
      "Ġobiect": 6825,
      "Ġtal": 6826,
      "IM": 6827,
      "cÄĥr": 6828,
      "Comuna": 6829,
      "Astfel": 6830,
      "ĠfÄĥcea": 6831,
      "ĠdispÄĥ": 6832,
      "bur": 6833,
      "Ġreu": 6834,
      "ocÄĥ": 6835,
      "sirea": 6836,
      "ĠpenalÄĥ": 6837,
      "ĠImperiul": 6838,
      "Ġalcool": 6839,
      "Ġdid": 6840,
      "Ġlarg": 6841,
      "Ġtrupele": 6842,
      "FR": 6843,
      "yle": 6844,
      "Ġprag": 6845,
      "tierÄĥ": 6846,
      "Ġcarne": 6847,
      "Ġvolumul": 6848,
      "ĠDoar": 6849,
      "ĠsÄĥptÄĥmÃ¢na": 6850,
      "ĠJack": 6851,
      "Ġtras": 6852,
      "Ġalimentare": 6853,
      "Ġsomn": 6854,
      "ĠSerb": 6855,
      "ĠforÈĽÄĥ": 6856,
      "Ġfavoarea": 6857,
      "ĠinternaÈĽionalÄĥ": 6858,
      "Ġinov": 6859,
      "ateri": 6860,
      "Ġproas": 6861,
      "Ġproprii": 6862,
      "Ġefectuate": 6863,
      "ĠMedia": 6864,
      "Ġtinere": 6865,
      "ĠculturÄĥ": 6866,
      "Ġnavi": 6867,
      "Ġsatis": 6868,
      "Ġstilul": 6869,
      "lice": 6870,
      "tori": 6871,
      "uzia": 6872,
      "Ġopera": 6873,
      "ropol": 6874,
      "ĠÃ®nfiinÈĽat": 6875,
      "vara": 6876,
      "rÄĥg": 6877,
      "ĠforÈĽelor": 6878,
      "Ġcombate": 6879,
      "ĠAgen": 6880,
      "Ġimun": 6881,
      "obile": 6882,
      "ĠÃ®nfrÃ¢n": 6883,
      "Ġdispozitiv": 6884,
      "oreazÄĥ": 6885,
      "Ġspecialitate": 6886,
      "nel": 6887,
      "Ġechiv": 6888,
      "Ġvaccin": 6889,
      "Guvern": 6890,
      "Ġot": 6891,
      "orÄĥ": 6892,
      "ĠNet": 6893,
      "Ġdepune": 6894,
      "ografic": 6895,
      "ĠSRL": 6896,
      "ĠÈĺcoala": 6897,
      "Ġconformitate": 6898,
      "ĠdiscuÈĽii": 6899,
      "Ġparalel": 6900,
      "41": 6901,
      "Tre": 6902,
      "Ġsare": 6903,
      "Ġ400": 6904,
      "Ġevrei": 6905,
      "Ġsemnificativ": 6906,
      "ĠPute": 6907,
      "ĠIr": 6908,
      "ĠURSS": 6909,
      "azÄĥ": 6910,
      "hor": 6911,
      "num": 6912,
      "Ã§": 6913,
      "ĠÃ®nsemn": 6914,
      "Ġmese": 6915,
      "2009": 6916,
      "Ġcopilului": 6917,
      "Ġfeder": 6918,
      "exi": 6919,
      "izatÄĥ": 6920,
      "Ġplani": 6921,
      "ĠieÈĻit": 6922,
      "For": 6923,
      "tÄĥtor": 6924,
      "mann": 6925,
      "ĠcÄĥsÄĥtorit": 6926,
      "ĠDis": 6927,
      "ĠNeag": 6928,
      "Ġaccent": 6929,
      "Ġsuge": 6930,
      "Ġmuze": 6931,
      "Ġunitate": 6932,
      "Ġmear": 6933,
      "ĠConform": 6934,
      "Ã¼n": 6935,
      "ĠmaghiarÄĥ": 6936,
      "ĠrÃ¢ul": 6937,
      "luc": 6938,
      "Ġavoc": 6939,
      "Ġalegerea": 6940,
      "03": 6941,
      "ĠSo": 6942,
      "ĠPara": 6943,
      "Äĥrb": 6944,
      "Ġdepus": 6945,
      "ĠeducaÈĽie": 6946,
      "43": 6947,
      "ĠÃİncepÃ¢nd": 6948,
      "ĠTraian": 6949,
      "02": 6950,
      "Ġsm": 6951,
      "Ġtitul": 6952,
      "Ġdepinde": 6953,
      "Ġferm": 6954,
      "osit": 6955,
      "oneze": 6956,
      "ĠÃ®nsuÈĻi": 6957,
      "92": 6958,
      "king": 6959,
      "Ġmei": 6960,
      "Ġexterior": 6961,
      "Ġpiesa": 6962,
      "Ġprieteni": 6963,
      "Ġmu": 6964,
      "veÈĽi": 6965,
      "ĠinformaÈĽiile": 6966,
      "Ġconcer": 6967,
      "Ġemi": 6968,
      "seste": 6969,
      "Ġvad": 6970,
      "Ġminer": 6971,
      "ĠvÃ¢rf": 6972,
      "Ġfratele": 6973,
      "ÈĽuri": 6974,
      "atiei": 6975,
      "ĠBol": 6976,
      "abet": 6977,
      "ĠsoluÈĽie": 6978,
      "Ġrestric": 6979,
      "Ġimpresion": 6980,
      "ĠvinÄĥ": 6981,
      "ĠTom": 6982,
      "Ġimpact": 6983,
      "Ġmajoritate": 6984,
      "Ġreveni": 6985,
      "anj": 6986,
      "Ġadolesc": 6987,
      "suri": 6988,
      "Ġlegale": 6989,
      "orf": 6990,
      "Ġfacil": 6991,
      "ĠscÄĥdere": 6992,
      "devÄĥrul": 6993,
      "stine": 6994,
      "Ġrevenit": 6995,
      "nire": 6996,
      "ĠconsideratÄĥ": 6997,
      "ĠLuci": 6998,
      "Va": 6999,
      "runt": 7000,
      "ĠMÄĥnÄĥsti": 7001,
      "my": 7002,
      "uitÄĥ": 7003,
      "ĠÃ®nte": 7004,
      "ĠDr": 7005,
      "Ġtrec": 7006,
      "ĠÂ·": 7007,
      "ĠmaximÄĥ": 7008,
      "ĠucraineanÄĥ": 7009,
      "%).": 7010,
      "Ġautob": 7011,
      "Ġ1945": 7012,
      "icili": 7013,
      "ĠÃ®ntÃ¢lnire": 7014,
      "Ġextraordin": 7015,
      "No": 7016,
      "ĠRoÈĻi": 7017,
      "cÈĽiei": 7018,
      "ĠÈĻcoli": 7019,
      "ĠMaram": 7020,
      "Ġmedical": 7021,
      "Ġelib": 7022,
      "ĠpÄĥrinÈĽii": 7023,
      "ĠMilit": 7024,
      "ĠTi": 7025,
      "iden": 7026,
      "ĠautoritÄĥÈĽilor": 7027,
      "Ġucis": 7028,
      "Ġstudio": 7029,
      "Ġpoporul": 7030,
      "Ġpetrecut": 7031,
      "Ġeficient": 7032,
      "Ġcoc": 7033,
      "86": 7034,
      "ĠatÃ¢": 7035,
      "Acum": 7036,
      "Luc": 7037,
      "Ġram": 7038,
      "Ġ1948": 7039,
      "ĠÈĻcoala": 7040,
      "ĠstÃ¢nga": 7041,
      "AdministraÈĽia": 7042,
      "Ġpraf": 7043,
      "Ġlate": 7044,
      "Ġcaut": 7045,
      "Ġcoali": 7046,
      "Ġprivate": 7047,
      "ĠTehn": 7048,
      "Ġsimple": 7049,
      "Ġcomunicare": 7050,
      "Ġfri": 7051,
      "Ġjandar": 7052,
      "Ġcarti": 7053,
      "ĠExterne": 7054,
      "ĠBudape": 7055,
      "ĠDeputaÈĽilor": 7056,
      "med": 7057,
      "Ġdomin": 7058,
      "Ġpielea": 7059,
      "ĠreferÄĥ": 7060,
      "Ġdemn": 7061,
      "oman": 7062,
      "ĠLui": 7063,
      "ĠKe": 7064,
      "Ġcheltuiel": 7065,
      "Co": 7066,
      "ÈĻÄĥ": 7067,
      "ĠÃ®naltÄĥ": 7068,
      "atoriu": 7069,
      "Ġnegru": 7070,
      "Ġmica": 7071,
      "omi": 7072,
      "Ġbic": 7073,
      "alerie": 7074,
      "Ġschimbare": 7075,
      "Ġfrecv": 7076,
      "Ġsonda": 7077,
      "keting": 7078,
      "baliÈĻti": 7079,
      "iep": 7080,
      "Ġreus": 7081,
      "Ġpreot": 7082,
      "ges": 7083,
      "Ġintitul": 7084,
      "ĠMed": 7085,
      "Ġtehnice": 7086,
      "Ġfirme": 7087,
      "Ġregimului": 7088,
      "Ġic": 7089,
      "Ġsemi": 7090,
      "âĢĿ)": 7091,
      "Ġprecedent": 7092,
      "ĠactriÈĽÄĥ": 7093,
      "Rus": 7094,
      "otice": 7095,
      "ĠadministraÈĽie": 7096,
      "ĠNobel": 7097,
      "Ġign": 7098,
      "Ġferic": 7099,
      "ĠGrigore": 7100,
      "Ġsil": 7101,
      "ungi": 7102,
      "ĠgÃ¢ndi": 7103,
      "rologie": 7104,
      "zer": 7105,
      "Ġexper": 7106,
      "Ġcentrale": 7107,
      "irii": 7108,
      "Ġaduse": 7109,
      "ĠpeÈĻte": 7110,
      "Ġgri": 7111,
      "ĠÃ®ntors": 7112,
      "Ġmomente": 7113,
      "ows": 7114,
      "ĠrelaÈĽii": 7115,
      "Ġiube": 7116,
      "91": 7117,
      "Ter": 7118,
      "ĠExe": 7119,
      "ĠAustral": 7120,
      "06": 7121,
      "ony": 7122,
      "Ġpara": 7123,
      "Ġrau": 7124,
      "ĠRez": 7125,
      "Ġdiscurs": 7126,
      "Ġalegerilor": 7127,
      "ĠExp": 7128,
      "sem": 7129,
      "ficatÄĥ": 7130,
      "Ġeuroparlament": 7131,
      "ĠÃ®ndeplin": 7132,
      "Ġcontext": 7133,
      "gent": 7134,
      "Cons": 7135,
      "Ġacordul": 7136,
      "Ġpovestea": 7137,
      "ĠInternational": 7138,
      "unic": 7139,
      "zece": 7140,
      "Ġaler": 7141,
      "Ġeram": 7142,
      "ĠdimineaÈĽÄĥ": 7143,
      "ĠPonta": 7144,
      "jloc": 7145,
      "Ġpis": 7146,
      "cuÈĽi": 7147,
      "ĠPot": 7148,
      "ĠFinan": 7149,
      "ĠOrdinul": 7150,
      "ĠCali": 7151,
      "Ġprograme": 7152,
      "Ġrezolv": 7153,
      "nicÄĥ": 7154,
      "tesc": 7155,
      "tite": 7156,
      "Ġgase": 7157,
      "isus": 7158,
      "Ġincul": 7159,
      "grad": 7160,
      "ĠhotÄĥr": 7161,
      "Monum": 7162,
      "vizi": 7163,
      "ĠDezvol": 7164,
      "ĠAlte": 7165,
      "itorului": 7166,
      "Ġcrimin": 7167,
      "post": 7168,
      "ĠlistÄĥ": 7169,
      "ĠCN": 7170,
      "Ġpielii": 7171,
      "Ġaplicare": 7172,
      "ExistÄĥ": 7173,
      "ED": 7174,
      "Mini": 7175,
      "hov": 7176,
      "Ġ%": 7177,
      "Ġmarea": 7178,
      "Ġriscul": 7179,
      "Ġtrib": 7180,
      "Ġinde": 7181,
      "usalim": 7182,
      "Ġlegal": 7183,
      "ĠgÄĥseÈĻte": 7184,
      "Ġieri": 7185,
      "Ġparticipa": 7186,
      "ĠUniversity": 7187,
      "Ġprocesului": 7188,
      "inul": 7189,
      "Ġbiz": 7190,
      "ĠplinÄĥ": 7191,
      "Ġprofit": 7192,
      "ĠClub": 7193,
      "ouri": 7194,
      "icule": 7195,
      "dialÄĥ": 7196,
      "oarelor": 7197,
      "Ġcunosc": 7198,
      "ĠWe": 7199,
      "Ġaccesul": 7200,
      "Ġcorespond": 7201,
      "Ġprogre": 7202,
      "ĠVar": 7203,
      "ĠKovesi": 7204,
      "ĠWal": 7205,
      "Ġgenul": 7206,
      "Ġsufletul": 7207,
      "odÄĥ": 7208,
      "ĠfinalÄĥ": 7209,
      "ĠetnicÄĥ": 7210,
      "raeli": 7211,
      "schi": 7212,
      "Ġcart": 7213,
      "Ġmascul": 7214,
      "Ġcumva": 7215,
      "Ġelevi": 7216,
      "ĠgÄĥsesc": 7217,
      "Ġmagazine": 7218,
      "amo": 7219,
      "oziÈĽii": 7220,
      "ĠaflatÄĥ": 7221,
      "ozitie": 7222,
      "pun": 7223,
      "Ġari": 7224,
      "ĠajungÄĥ": 7225,
      "Ġlegislat": 7226,
      "Ġopinia": 7227,
      "Even": 7228,
      "rada": 7229,
      "Ġjustit": 7230,
      "chipa": 7231,
      "94": 7232,
      "ĠSoc": 7233,
      "ĠDane": 7234,
      "uman": 7235,
      "Ġspati": 7236,
      "ĠUngariei": 7237,
      "Const": 7238,
      "ĠGalaÈĽi": 7239,
      "Personal": 7240,
      "Ed": 7241,
      "ĠCity": 7242,
      "Ġinteresul": 7243,
      "Ġapropiat": 7244,
      "ĠPor": 7245,
      "oth": 7246,
      "rÄĥm": 7247,
      "Ġvecin": 7248,
      "Ġraionul": 7249,
      "Ġmarcat": 7250,
      "Ġ1960": 7251,
      "ĠLiter": 7252,
      "Ġgrija": 7253,
      "ristian": 7254,
      "heim": 7255,
      "mani": 7256,
      "Ġluate": 7257,
      "ĠrealizatÄĥ": 7258,
      "oanei": 7259,
      "Ġdeschide": 7260,
      "tur": 7261,
      "Ġcuren": 7262,
      "Ġconstant": 7263,
      "Ġajutat": 7264,
      "Ġsucce": 7265,
      "Ġascul": 7266,
      "Ġanaliza": 7267,
      "Ġobservat": 7268,
      "CÄĥ": 7269,
      "ried": 7270,
      "ĠAnton": 7271,
      "matice": 7272,
      "Ġreviz": 7273,
      "ĠediÈĽia": 7274,
      "Sup": 7275,
      "ĠiarnÄĥ": 7276,
      "ĠMeteor": 7277,
      "Ġplanul": 7278,
      "ĠIndia": 7279,
      "itatul": 7280,
      "Ġinau": 7281,
      "ĠCen": 7282,
      "Ġprimii": 7283,
      "Ġpublicului": 7284,
      "Ġumb": 7285,
      "1992": 7286,
      "Ġinclud": 7287,
      "enÈĽei": 7288,
      "ceÈĻti": 7289,
      "Ġeconomia": 7290,
      "ĠrelaÈĽia": 7291,
      "ĠstradÄĥ": 7292,
      "''": 7293,
      "Äĥra": 7294,
      "ĠcÄĥci": 7295,
      "Ġlupte": 7296,
      "Ġimaginea": 7297,
      "Ġcariera": 7298,
      "Ġcetate": 7299,
      "ami": 7300,
      "uned": 7301,
      "Ġfete": 7302,
      "Cap": 7303,
      "ÈĽiÈĻ": 7304,
      "Ġoficiale": 7305,
      "align": 7306,
      "Ġevacu": 7307,
      "ĠCharles": 7308,
      "ĠaceÈĻti": 7309,
      "Ġpuse": 7310,
      "Ġincer": 7311,
      "ministru": 7312,
      "Ġutilizare": 7313,
      "itatile": 7314,
      "Cei": 7315,
      "EA": 7316,
      "Ġcot": 7317,
      "ĠSha": 7318,
      "ĠPress": 7319,
      "ĠDN": 7320,
      "Istorie": 7321,
      "ptele": 7322,
      "Ġdrepturilor": 7323,
      "Ġlink": 7324,
      "ĠJaponia": 7325,
      "dis": 7326,
      "Ġoferite": 7327,
      "olic": 7328,
      "ĠJose": 7329,
      "iber": 7330,
      "ĠadaugÄĥ": 7331,
      "Ġechipamente": 7332,
      "vista": 7333,
      "izit": 7334,
      "Ġdecizii": 7335,
      "ji": 7336,
      "Ġadun": 7337,
      "Ġidee": 7338,
      "ĠÃ®nvÄĥÈĽÄĥmÃ¢nt": 7339,
      "ĠDemocrat": 7340,
      "ĠGermaniei": 7341,
      "Ġstructura": 7342,
      "ts": 7343,
      "ĠspecialÄĥ": 7344,
      "Ġsiguranta": 7345,
      "ĠSRI": 7346,
      "ĠPD": 7347,
      "Inter": 7348,
      "Scriitori": 7349,
      "Ġdon": 7350,
      "raz": 7351,
      "Activ": 7352,
      "ĠMel": 7353,
      "ĠdiscuÈĽie": 7354,
      "Ġconfirmat": 7355,
      "Ġcomercial": 7356,
      "ĠfuseserÄĥ": 7357,
      "84": 7358,
      "kt": 7359,
      "iel": 7360,
      "Ġdincolo": 7361,
      "oriile": 7362,
      "pete": 7363,
      "ĠparticipÄĥ": 7364,
      "Cat": 7365,
      "fir": 7366,
      "aure": 7367,
      "off": 7368,
      "ĠSport": 7369,
      "Ã¼r": 7370,
      "Ġvorbesc": 7371,
      "Ġcooper": 7372,
      "ĠRen": 7373,
      "Ġ36": 7374,
      "Ġautom": 7375,
      "Ġenerget": 7376,
      "ĠtÃ¢nÄĥr": 7377,
      "ÈĻel": 7378,
      "Ġund": 7379,
      "Ġinregist": 7380,
      "Ġanal": 7381,
      "Ġnegocie": 7382,
      ".),": 7383,
      "arca": 7384,
      "oph": 7385,
      "Ġplac": 7386,
      "ĠÈļara": 7387,
      "ĠIord": 7388,
      "Local": 7389,
      "ĠRÃ®": 7390,
      "Ġinflam": 7391,
      "Ġincepe": 7392,
      "09": 7393,
      "ĠMunte": 7394,
      "Ġopti": 7395,
      "ĠIerusalim": 7396,
      "clar": 7397,
      "Ġmutat": 7398,
      "Ġingredi": 7399,
      "ead": 7400,
      "ĠCA": 7401,
      "ĠcÄĥror": 7402,
      "1999": 7403,
      "Ġrespins": 7404,
      "Ġdiplom": 7405,
      "04": 7406,
      "MP": 7407,
      "Ġaz": 7408,
      "ĠpersonalÄĥ": 7409,
      "Ġopri": 7410,
      "Ġ1986": 7411,
      "Ziua": 7412,
      "07": 7413,
      "Ġceal": 7414,
      "ĠAlbÄĥ": 7415,
      "Ġseria": 7416,
      "Ġalia": 7417,
      "Ġhand": 7418,
      "Ġlumin": 7419,
      "Ġregiuni": 7420,
      "cam": 7421,
      "ĠamÃ¢n": 7422,
      "stii": 7423,
      "lah": 7424,
      "ĠÃ®ntrebat": 7425,
      "Ġfrumuse": 7426,
      "so": 7427,
      "Ġ1930": 7428,
      "Ġcontracte": 7429,
      "Ġcorpor": 7430,
      "ĠLiga": 7431,
      "Ġmetode": 7432,
      "Ġciti": 7433,
      "Ġramane": 7434,
      "ĠdispoziÈĽie": 7435,
      "ril": 7436,
      "ande": 7437,
      "ĠprivinÈĽa": 7438,
      "Ġnas": 7439,
      "Ġavioane": 7440,
      "cy": 7441,
      "omas": 7442,
      "Ġhran": 7443,
      "Ġuitat": 7444,
      "Ġ1981": 7445,
      "Ġdemers": 7446,
      "Ġsemne": 7447,
      "Ġax": 7448,
      "ĠTine": 7449,
      "Ġnet": 7450,
      "ĠArh": 7451,
      "Ġdevreme": 7452,
      "ĠatenÈĽie": 7453,
      "remlin": 7454,
      "ĠluminÄĥ": 7455,
      "Ġpierderea": 7456,
      "cepe": 7457,
      "ĠDic": 7458,
      "ĠRap": 7459,
      "eniu": 7460,
      "Ġnoroc": 7461,
      "Ġaspecte": 7462,
      "Ġbronz": 7463,
      "face": 7464,
      "liei": 7465,
      "rÃ©": 7466,
      "Ġatinge": 7467,
      "Ġincon": 7468,
      "ĠexplicÄĥ": 7469,
      "ĠAsia": 7470,
      "56": 7471,
      "unca": 7472,
      "Ġemail": 7473,
      "Ġteore": 7474,
      "Ġ1985": 7475,
      "Aceasta": 7476,
      "inf": 7477,
      "ĠInstit": 7478,
      "ĠreprezentanÈĽii": 7479,
      "Ġcampania": 7480,
      "lom": 7481,
      "Ġsinte": 7482,
      "Ġevit": 7483,
      "Ġprins": 7484,
      "Ġadapt": 7485,
      "ĠElve": 7486,
      "Ġmilitari": 7487,
      "ĠmÄĥri": 7488,
      "ograficÄĥ": 7489,
      "Ġintelig": 7490,
      "Ġmanipul": 7491,
      "ĠCerce": 7492,
      "Ġbuz": 7493,
      "ĠgreacÄĥ": 7494,
      "Ġ1984": 7495,
      "ations": 7496,
      "oftware": 7497,
      "spector": 7498,
      "Ġorganizate": 7499,
      "Ġ1977": 7500,
      "ĠdesfÄĥÈĻurat": 7501,
      "ĠcetÄĥÈĽenilor": 7502,
      "ĠalÄĥt": 7503,
      "ĠgÄĥz": 7504,
      "ĠFrank": 7505,
      "ĠcentralÄĥ": 7506,
      "ĠacÈĽiunile": 7507,
      "Premiul": 7508,
      "Ġfum": 7509,
      "Ġprimarul": 7510,
      "ĠPloieÈĻti": 7511,
      "ĠIonescu": 7512,
      "Ġadmi": 7513,
      "Ġ1974": 7514,
      "div": 7515,
      "fal": 7516,
      "ĠNÄĥ": 7517,
      "gramul": 7518,
      "ĠcuvÃ¢ntul": 7519,
      "ĠexcepÈĽia": 7520,
      "Ġvicti": 7521,
      "inica": 7522,
      "Ġtalen": 7523,
      "ĠJames": 7524,
      "Ġpension": 7525,
      "ĠOrganiz": 7526,
      "ĠvorbeÈĻte": 7527,
      "Ġmaghiari": 7528,
      "sie": 7529,
      "tent": 7530,
      "Ġviteza": 7531,
      "ĠLudovic": 7532,
      "ĠpunÄĥ": 7533,
      "Ġfug": 7534,
      "olos": 7535,
      "ĠStÄĥ": 7536,
      "Ġurme": 7537,
      "Ġ1982": 7538,
      "Ġartist": 7539,
      "ĠinfluenÈĽa": 7540,
      "ĠInternet": 7541,
      "ĠÎ": 7542,
      "ĠTÄĥ": 7543,
      "Ġ1987": 7544,
      "Ġatrage": 7545,
      "Ġcomentarii": 7546,
      "Ġdumneavoastra": 7547,
      "Ġthat": 7548,
      "Prim": 7549,
      "Ġprimului": 7550,
      "artamentul": 7551,
      "Ġvizite": 7552,
      "ĠBiro": 7553,
      "itatÄĥ": 7554,
      "acte": 7555,
      "ĠurmÃ¢nd": 7556,
      "87": 7557,
      "hel": 7558,
      "Ġfasc": 7559,
      "ĠProte": 7560,
      "Ġsportiv": 7561,
      "Ġbel": 7562,
      "Ġbrand": 7563,
      "Ġresurse": 7564,
      "93": 7565,
      "Fi": 7566,
      "vine": 7567,
      "Ã¢nte": 7568,
      "Ġposibile": 7569,
      "Ġgestion": 7570,
      "MI": 7571,
      "ĠStre": 7572,
      "ĠWeb": 7573,
      "ĠSecuritate": 7574,
      "ĠmanifestÄĥ": 7575,
      "ĠVor": 7576,
      "Ġculturii": 7577,
      "ĠdegrabÄĥ": 7578,
      "ĠBuzÄĥu": 7579,
      "Cur": 7580,
      "ht": 7581,
      "Ġafis": 7582,
      "Ġformarea": 7583,
      "Ġ1979": 7584,
      "ĠdeschisÄĥ": 7585,
      "ĠPalatul": 7586,
      "ĠSocial": 7587,
      "ovan": 7588,
      "Ġtoamna": 7589,
      "Ã®t": 7590,
      "ĠWind": 7591,
      "Ġboala": 7592,
      "Ġreligioase": 7593,
      "dt": 7594,
      "port": 7595,
      "uÈĽ": 7596,
      "Ġpetrol": 7597,
      "Ġcerea": 7598,
      "Ġtitlu": 7599,
      "Vi": 7600,
      "oarta": 7601,
      "Ġmig": 7602,
      "Ġschimbarea": 7603,
      "Ġlinguri": 7604,
      "ĠnaÈĽi": 7605,
      "ĠEugen": 7606,
      "Ġmajore": 7607,
      "ĠproducÈĽia": 7608,
      "ĠCada": 7609,
      "ĠSfÃ¢ntului": 7610,
      "morm": 7611,
      "reÈĻti": 7612,
      "ĠDupa": 7613,
      "bume": 7614,
      "Ġculori": 7615,
      "Toate": 7616,
      "Ġinchi": 7617,
      "ĠaplicÄĥ": 7618,
      "ĠFl": 7619,
      "apÄĥ": 7620,
      "Ġrecord": 7621,
      "Ġ1972": 7622,
      "ĠcumpÄĥrÄĥ": 7623,
      "ĠAsa": 7624,
      "Ġdomicili": 7625,
      "ĠMichael": 7626,
      "way": 7627,
      "ĠLup": 7628,
      "ÈĻtea": 7629,
      "ĠIulia": 7630,
      "cie": 7631,
      "ÈĽiu": 7632,
      "ĠridicatÄĥ": 7633,
      "Ġsuprafe": 7634,
      "Ġpromovarea": 7635,
      "ovo": 7636,
      "Ġpersonaje": 7637,
      "isme": 7638,
      "mana": 7639,
      "ĠbÄĥtrÃ¢n": 7640,
      "Ġrelu": 7641,
      "Ġpozit": 7642,
      "Ġministrului": 7643,
      "Ġnave": 7644,
      "Ġpagini": 7645,
      "ĠsoldaÈĽi": 7646,
      "ĠadÃ¢nc": 7647,
      "Ġbibliote": 7648,
      "Ġ75": 7649,
      "Ġtent": 7650,
      "Ġtemperatura": 7651,
      "ĠCamerei": 7652,
      "98": 7653,
      "uil": 7654,
      "Ġaca": 7655,
      "Ġdrepturi": 7656,
      "Ġromano": 7657,
      "ĠcetÄĥÈĽeni": 7658,
      "Ġexploz": 7659,
      "orte": 7660,
      "orth": 7661,
      "atiilor": 7662,
      "Ġeconomie": 7663,
      "Ġfondul": 7664,
      "hul": 7665,
      "Ġdete": 7666,
      "ieze": 7667,
      "ĠHel": 7668,
      "Ġprocuror": 7669,
      "ĠNat": 7670,
      "ĠHuned": 7671,
      "Ġrapi": 7672,
      "Ġdispune": 7673,
      "ĠÈĻtiinÈĽe": 7674,
      "----": 7675,
      "ĠMeteorologie": 7676,
      "Cine": 7677,
      "Mul": 7678,
      "Ġmediului": 7679,
      "Artic": 7680,
      "Ġpopor": 7681,
      "Â°": 7682,
      "Ġmorm": 7683,
      "ĠcÄĥrei": 7684,
      "tarii": 7685,
      "lim": 7686,
      "Ġpant": 7687,
      "Ġasas": 7688,
      "Ġgo": 7689,
      "sco": 7690,
      "Ġmix": 7691,
      "tiere": 7692,
      "ĠrelaÈĽie": 7693,
      "Ġoriginal": 7694,
      "George": 7695,
      "Ġadica": 7696,
      "Ġsum": 7697,
      "ĠCov": 7698,
      "ĠLice": 7699,
      "Ġalbumul": 7700,
      "Ġprietenii": 7701,
      "Ġexclu": 7702,
      "ĠMaramureÈĻ": 7703,
      "Ġrete": 7704,
      "Ġtrecerea": 7705,
      "Ġcomponente": 7706,
      "Ġautorul": 7707,
      "ĠrelaÈĽiile": 7708,
      "Ġfotografii": 7709,
      "Ġbrows": 7710,
      "Ġconsilieri": 7711,
      "Ac": 7712,
      "oriu": 7713,
      "zelor": 7714,
      "Ġguvernament": 7715,
      "Ġilust": 7716,
      "Ġdedicat": 7717,
      "Ġmuncii": 7718,
      "usul": 7719,
      "Ġimpres": 7720,
      "Ġmarca": 7721,
      "Ġmotor": 7722,
      "https": 7723,
      "atic": 7724,
      "Äĥtore": 7725,
      "ĠUDMR": 7726,
      "Ġprezentate": 7727,
      "Ġcapacitate": 7728,
      "Ġacceptat": 7729,
      "Ġdiabet": 7730,
      "ĠElect": 7731,
      "2011": 7732,
      "Ġliterar": 7733,
      "97": 7734,
      "tene": 7735,
      "Ġvote": 7736,
      "ĠlasÄĥ": 7737,
      "stel": 7738,
      "Ġbord": 7739,
      "erson": 7740,
      "minte": 7741,
      "Ġdepl": 7742,
      "Ġputerii": 7743,
      "ĠprincipalÄĥ": 7744,
      "ĠaparÈĽine": 7745,
      "Ġsemnal": 7746,
      "ĠjucÄĥtor": 7747,
      "Ġpurtat": 7748,
      "ĠactualÄĥ": 7749,
      "ĠNoua": 7750,
      "Ġrelev": 7751,
      "pÄĥt": 7752,
      "Ġdrog": 7753,
      "Ġsensibil": 7754,
      "Ġvotul": 7755,
      "Ġlinii": 7756,
      "Ġvoie": 7757,
      "ĠRu": 7758,
      "ĠIisus": 7759,
      "Ġpreven": 7760,
      "Ġsuver": 7761,
      "ĠÃ®ntrebÄĥri": 7762,
      "Ġingin": 7763,
      "diilor": 7764,
      "Ġzid": 7765,
      "Ġinstrum": 7766,
      "ĠposibilÄĥ": 7767,
      "ĠrÄĥmÃ¢nÄĥ": 7768,
      "ĠÈĺtiinÈĽe": 7769,
      "Ġgalben": 7770,
      "Ġadevarat": 7771,
      "EC": 7772,
      "ĠAer": 7773,
      "Ġproa": 7774,
      "ĠTar": 7775,
      "dagog": 7776,
      "Ġ32": 7777,
      "Ġlungi": 7778,
      "ĠgrijÄĥ": 7779,
      "Ġconvins": 7780,
      "ĠDanemar": 7781,
      "Ġpresiune": 7782,
      "Ġpercep": 7783,
      "Ġfilmului": 7784,
      "Ġistoriei": 7785,
      "PSD": 7786,
      "ostea": 7787,
      "Ġofere": 7788,
      "Ġ250": 7789,
      "acÄĥu": 7790,
      "2010": 7791,
      "ĠconstrucÈĽie": 7792,
      "Ġserviciul": 7793,
      "ĠameninÈĽÄĥ": 7794,
      "gro": 7795,
      "ÈĽeazÄĥ": 7796,
      "Ġnel": 7797,
      "ĠPeter": 7798,
      "Ġmedicul": 7799,
      "Ġmasina": 7800,
      "ĠsÄĥrbÄĥtori": 7801,
      "gel": 7802,
      "ÈĻesc": 7803,
      "Ġridicate": 7804,
      "ĠÄĥsta": 7805,
      "ĠsupravieÈĽ": 7806,
      "Ġslab": 7807,
      "OraÈĻe": 7808,
      "fund": 7809,
      "enia": 7810,
      "Ġsect": 7811,
      "ĠMana": 7812,
      "ofi": 7813,
      "spect": 7814,
      "Ġcategorii": 7815,
      "ĠEminescu": 7816,
      "Ġprocurorii": 7817,
      "ĠcÄĥzut": 7818,
      "ĠpreÈĽul": 7819,
      "cher": 7820,
      "2018": 7821,
      "ĠLeon": 7822,
      "Ġlichid": 7823,
      "Ġtaxe": 7824,
      "Ġsecretar": 7825,
      "ĠprÄĥbu": 7826,
      "Ġadec": 7827,
      "tan": 7828,
      "ologi": 7829,
      "Ġautonom": 7830,
      "Ġ1988": 7831,
      "Ġcontribuie": 7832,
      "ĠðŁĻ": 7833,
      "ĠBudapesta": 7834,
      "Mari": 7835,
      "Ġmort": 7836,
      "ÈĻilor": 7837,
      "ĠCrist": 7838,
      "Ġ978": 7839,
      "ĠlocalitÄĥÈĽi": 7840,
      "ĠÃ®ntrucÃ¢t": 7841,
      "MA": 7842,
      "Ġexpe": 7843,
      "Ġgrele": 7844,
      "ĠTeodor": 7845,
      "Ġexperienta": 7846,
      "Ġmunicipiului": 7847,
      "ĠTeatrul": 7848,
      "ĠPavel": 7849,
      "darea": 7850,
      "alelor": 7851,
      "ingÄĥ": 7852,
      "Ġisraeli": 7853,
      "endente": 7854,
      "ĠBlack": 7855,
      "aritate": 7856,
      "Ġho": 7857,
      "Ġpremier": 7858,
      "Ġcheie": 7859,
      "ĠImperiului": 7860,
      "Ġacor": 7861,
      "vesti": 7862,
      "Ġvideoclip": 7863,
      "ziei": 7864,
      "acob": 7865,
      "Ġaprobat": 7866,
      "Ġdomenii": 7867,
      "ĠnaturalÄĥ": 7868,
      "Ġpovesti": 7869,
      "ures": 7870,
      "ĠforÈĽa": 7871,
      "set": 7872,
      "Ġdoamna": 7873,
      "ÈĽionarea": 7874,
      "Sec": 7875,
      "ĠliterarÄĥ": 7876,
      "ĠSecolul": 7877,
      "Bazinul": 7878,
      "istice": 7879,
      "Ġatins": 7880,
      "Ġexport": 7881,
      "Ġstudiile": 7882,
      "ĠAface": 7883,
      "Ġretras": 7884,
      "ramul": 7885,
      "oda": 7886,
      "Ġmesaje": 7887,
      "ĠscenÄĥ": 7888,
      "Site": 7889,
      "ĠsÄĥra": 7890,
      "ĠMuz": 7891,
      "Ġaloc": 7892,
      "Ġneut": 7893,
      "Ġliderii": 7894,
      "uÈĻor": 7895,
      "Ġconsiderare": 7896,
      "Ġproprietate": 7897,
      "ĠCapitale": 7898,
      "ĠhotÄĥrÃ¢t": 7899,
      "Ġderul": 7900,
      "ÈĽÃ¢nd": 7901,
      "Ġdinam": 7902,
      "Ġnem": 7903,
      "hip": 7904,
      "Ġoptim": 7905,
      "ĠStar": 7906,
      "ĠaÈĻteptÄĥ": 7907,
      "FotbaliÈĻti": 7908,
      "ĠSlov": 7909,
      "ĠBistri": 7910,
      "Ġacasa": 7911,
      "ĠÃ®ntÃ¢r": 7912,
      "Ġriscu": 7913,
      "busti": 7914,
      "ĠHunedoara": 7915,
      "Asta": 7916,
      "Cer": 7917,
      "ĠPE": 7918,
      "ĠSteaua": 7919,
      "ĠrugÄĥci": 7920,
      "ĠNeagrÄĥ": 7921,
      "ĠFond": 7922,
      "Ġnemul": 7923,
      "ĠfÄĥcÃ¢nd": 7924,
      "Äĥriceanu": 7925,
      "Ġ1973": 7926,
      "sionalÄĥ": 7927,
      "ĠMarius": 7928,
      "organ": 7929,
      "Ġnational": 7930,
      "Ġrevol": 7931,
      "Ġ--": 7932,
      "intei": 7933,
      "Ġlux": 7934,
      "ĠCamera": 7935,
      "lot": 7936,
      "ĠPL": 7937,
      "ĠurmÄĥri": 7938,
      "ĠsimplÄĥ": 7939,
      "ĠregulÄĥ": 7940,
      "ĠCred": 7941,
      "Ġatacuri": 7942,
      "sub": 7943,
      "Ġaveam": 7944,
      "ĠreÈĽeaua": 7945,
      "64": 7946,
      "aa": 7947,
      "ĠÃ®ntÃ¢lniri": 7948,
      "Ġdiferit": 7949,
      "Ġpropriul": 7950,
      "ĠcÃ¢ntÄĥre": 7951,
      "ĠCapitalei": 7952,
      "Mun": 7953,
      "Ġghe": 7954,
      "Ġ1969": 7955,
      "Ġconsiderate": 7956,
      "Ġlibertatea": 7957,
      "Ġimplicat": 7958,
      "ĠmuÈĻ": 7959,
      "acii": 7960,
      "ĠStu": 7961,
      "cÈĽiune": 7962,
      "Ġprovine": 7963,
      "Ġjuridice": 7964,
      "Ġaiba": 7965,
      "Ġvizita": 7966,
      "Ġcinemat": 7967,
      "Ġinvest": 7968,
      "center": 7969,
      "Ġmal": 7970,
      "ject": 7971,
      "Ġpermanent": 7972,
      "ĠHidrologie": 7973,
      "ĠaceleaÈĻi": 7974,
      "Nicolae": 7975,
      "Ġmarginea": 7976,
      "ep": 7977,
      "cutiv": 7978,
      "ĠSite": 7979,
      "reaga": 7980,
      "ĠIvan": 7981,
      "Ġprile": 7982,
      "ĠValen": 7983,
      "ĠcriticÄĥ": 7984,
      "Ġexistente": 7985,
      "Ġmagazin": 7986,
      "rapie": 7987,
      "ĠPrahova": 7988,
      "Cor": 7989,
      "Ġtrup": 7990,
      "terul": 7991,
      "Ġarta": 7992,
      "Ġscena": 7993,
      "cÈĽiunea": 7994,
      "ĠBraz": 7995,
      "cal": 7996,
      "dra": 7997,
      "gor": 7998,
      "Ġdescu": 7999,
      "ĠFiecare": 8000,
      "Ġimpune": 8001,
      "ĠprotecÈĽia": 8002,
      "Ġcolegii": 8003,
      "ĠrÄĥspunde": 8004,
      "ÈĻirea": 8005,
      "ĠCase": 8006,
      "Ġreven": 8007,
      "Ġlapte": 8008,
      "ĠregÄĥ": 8009,
      "Ġrealiza": 8010,
      "Ġzahar": 8011,
      "ĠleagÄĥ": 8012,
      "Ġzg": 8013,
      "Filme": 8014,
      "ĠONU": 8015,
      "ĠCadastrul": 8016,
      "Iar": 8017,
      "Ġdevin": 8018,
      "Ġtone": 8019,
      "ĠliberÄĥ": 8020,
      "nera": 8021,
      "lele": 8022,
      "sisten": 8023,
      "ĠTit": 8024,
      "Ġsolicitat": 8025,
      "Ġdiscutat": 8026,
      "vei": 8027,
      "illa": 8028,
      "Ġpropag": 8029,
      "ĠEven": 8030,
      "Ġ1978": 8031,
      "ĠelectricÄĥ": 8032,
      "ĠmaÈĻina": 8033,
      "ĠobÈĽinute": 8034,
      "inci": 8035,
      "Ġantici": 8036,
      "Ġatri": 8037,
      "Ġvehicul": 8038,
      "ĠCip": 8039,
      "ĠTor": 8040,
      "Ġ1975": 8041,
      "Ġrat": 8042,
      "anca": 8043,
      "Ġvii": 8044,
      "trem": 8045,
      "iteÈĻti": 8046,
      "Ġenergia": 8047,
      "Ġprostitu": 8048,
      "Ġnucleare": 8049,
      "ĠPortug": 8050,
      "Ġpon": 8051,
      "Ġmis": 8052,
      "Ġavent": 8053,
      "ÈĽionare": 8054,
      "atoritÄĥ": 8055,
      "Ġocupa": 8056,
      "Ġsimptome": 8057,
      "Ġ120": 8058,
      "amin": 8059,
      "Ġhar": 8060,
      "Ġconstrui": 8061,
      "stie": 8062,
      "Ġpurta": 8063,
      "Ġinterzis": 8064,
      "ĠdimineaÈĽa": 8065,
      "Ġconcuren": 8066,
      "ĠOccident": 8067,
      "dro": 8068,
      "Ġrecip": 8069,
      "Ġlegile": 8070,
      "Ġpian": 8071,
      "Ġdistrus": 8072,
      "ĠrapidÄĥ": 8073,
      "Alexandru": 8074,
      "meni": 8075,
      "smul": 8076,
      "tÃ¢nd": 8077,
      "cuv": 8078,
      "ĠAdevÄĥrul": 8079,
      "Ġgeneralul": 8080,
      "ĠsunteÈĽi": 8081,
      "ĠcamerÄĥ": 8082,
      "Ġmodificarea": 8083,
      "Chiar": 8084,
      "ĠNeamÈĽ": 8085,
      "ĠRÃ®urile": 8086,
      "53": 8087,
      "58": 8088,
      "ĠRam": 8089,
      "Ġoricum": 8090,
      "ĠstrÄĥini": 8091,
      "Ġdecide": 8092,
      "right": 8093,
      "ĠSur": 8094,
      "ĠcautÄĥ": 8095,
      "âĢĿ;": 8096,
      "ritul": 8097,
      "2016": 8098,
      "ĠcetÄĥÈĽenii": 8099,
      "Ġwebsite": 8100,
      "ĠprimeÈĻte": 8101,
      "Ġrecuper": 8102,
      "AÈĻa": 8103,
      "pren": 8104,
      "ionat": 8105,
      "Ġrar": 8106,
      "iscopul": 8107,
      "ĠCernÄĥ": 8108,
      "Ġdeterminat": 8109,
      "ĠÃ®ncad": 8110,
      "Ġtai": 8111,
      "Ġconven": 8112,
      "Ġperiod": 8113,
      "ĠÈĻtim": 8114,
      "ĠproducÄĥtor": 8115,
      "Ġ1956": 8116,
      "Ġdeleg": 8117,
      "Ġundeva": 8118,
      "ĠscrisÄĥ": 8119,
      "Ġvolume": 8120,
      "ĠAustralia": 8121,
      "Ale": 8122,
      "onii": 8123,
      "Ġavand": 8124,
      "eneÈĻti": 8125,
      "Ġteritoriu": 8126,
      "Ġdureri": 8127,
      "osif": 8128,
      "ĠapÄĥrarea": 8129,
      "ĠpoliÈĽie": 8130,
      "ye": 8131,
      "Ġaccepta": 8132,
      "Ġpropunerea": 8133,
      "gem": 8134,
      "ĠjustiÈĽie": 8135,
      "Loc": 8136,
      "Ġ1976": 8137,
      "Ġscrisoare": 8138,
      "News": 8139,
      "Pl": 8140,
      "rali": 8141,
      "ĠroÈĻu": 8142,
      "ĠPreÈĻedintele": 8143,
      "Ġdosare": 8144,
      "Ġpropriile": 8145,
      "Ġmodificare": 8146,
      "ade": 8147,
      "wood": 8148,
      "Ġlac": 8149,
      "otic": 8150,
      "Ġned": 8151,
      "Ġautoturi": 8152,
      "Ġdescri": 8153,
      "ĠDigi": 8154,
      "ĠRichard": 8155,
      "Ġacadem": 8156,
      "Ġmasiv": 8157,
      "ĠSin": 8158,
      "ĠconstÄĥ": 8159,
      "Ġdifuz": 8160,
      "ĠmodificÄĥri": 8161,
      "ĠBacÄĥu": 8162,
      "Ġdesen": 8163,
      "Ġlibertate": 8164,
      "ous": 8165,
      "ocam": 8166,
      "ĠLin": 8167,
      "Ġajute": 8168,
      "ĠpopularÄĥ": 8169,
      "ĠtrÄĥiesc": 8170,
      "ĠÃ®nvÄĥÈĽat": 8171,
      "08": 8172,
      "Ġalaturi": 8173,
      "ĠOam": 8174,
      "Ġcreier": 8175,
      "Ġorganism": 8176,
      "Ġmuscul": 8177,
      "iste": 8178,
      "Ġdefic": 8179,
      "Ġfre": 8180,
      "Ġincal": 8181,
      "ĠpurtÄĥt": 8182,
      "ĠBÄĥsescu": 8183,
      "ĠOlimpice": 8184,
      "fu": 8185,
      "ĠCot": 8186,
      "iau": 8187,
      "Ġoras": 8188,
      "Ġdiagnostic": 8189,
      "atiile": 8190,
      "Ġoch": 8191,
      "ĠgÃ¢n": 8192,
      "ĠimplicÄĥ": 8193,
      "Ġnoile": 8194,
      "ĠpublicatÄĥ": 8195,
      "Ġbucura": 8196,
      "Col": 8197,
      "Ġimpac": 8198,
      "ĠCongres": 8199,
      "ĠJurnalul": 8200,
      "Ġdator": 8201,
      "ruri": 8202,
      "Ġhramul": 8203,
      "Ġuita": 8204,
      "apta": 8205,
      "terioarÄĥ": 8206,
      "ĠCapit": 8207,
      "Ġmunicipiul": 8208,
      "Ġascult": 8209,
      "Primul": 8210,
      "Ġfurt": 8211,
      "Ġcompaniile": 8212,
      "Ã®mp": 8213,
      "Ġlocuitorii": 8214,
      "Ġnota": 8215,
      "Ġodi": 8216,
      "ĠtotodatÄĥ": 8217,
      "Ġdurere": 8218,
      "Ġcalend": 8219,
      "PD": 8220,
      "Ñĥ": 8221,
      "Ġcasei": 8222,
      "Ġaplicarea": 8223,
      "ĠVaslui": 8224,
      "fac": 8225,
      "Ġretro": 8226,
      "izia": 8227,
      "Ġfostului": 8228,
      "Ġrock": 8229,
      "Ġoprit": 8230,
      "ondiale": 8231,
      "Ġ1983": 8232,
      "ĠMarcel": 8233,
      "ĠÃ®ncerca": 8234,
      "ĠseamÄĥ": 8235,
      "Ġconsiliul": 8236,
      "Ġmane": 8237,
      "ĠreÈĻedin": 8238,
      "Ġset": 8239,
      "ĠtehnicÄĥ": 8240,
      "1989": 8241,
      "ĠÃ®ndeplini": 8242,
      "Ġremarcat": 8243,
      "HÄĥrÈĽi": 8244,
      "Ġ48": 8245,
      "Ġspecialist": 8246,
      "Ġzah": 8247,
      "ospodÄĥrirea": 8248,
      "Ġacelui": 8249,
      "ivÄĥ": 8250,
      "leazÄĥ": 8251,
      "Ġmilion": 8252,
      "Ġpatrimoni": 8253,
      "Ġeconomiei": 8254,
      "ĠarmatÄĥ": 8255,
      "cei": 8256,
      "Ġprogramului": 8257,
      "Ġconcre": 8258,
      "Ġstudiat": 8259,
      "Ġanumit": 8260,
      "Ġinsula": 8261,
      "Ġdemonstrat": 8262,
      "magini": 8263,
      "ĠðŁĻĤ": 8264,
      "Ġputeau": 8265,
      "Ġsunteti": 8266,
      "DEO": 8267,
      "Ġjocul": 8268,
      "ty": 8269,
      "Å¡": 8270,
      "ĠBib": 8271,
      "ĠHan": 8272,
      "ĠTVA": 8273,
      "cina": 8274,
      "tru": 8275,
      "Ġgimna": 8276,
      "oto": 8277,
      "Ġiarna": 8278,
      "Ġdrone": 8279,
      "gure": 8280,
      "name": 8281,
      "tilor": 8282,
      "Ġlucrarea": 8283,
      "Ġmintea": 8284,
      "Ġincluse": 8285,
      "Ġfizic": 8286,
      "aliÈĻtilor": 8287,
      "Ġhip": 8288,
      "ĠðŁĺ": 8289,
      "CD": 8290,
      "iver": 8291,
      "verin": 8292,
      "ĠbÄĥie": 8293,
      "Ġcumpar": 8294,
      "Princip": 8295,
      "Ġconsiliu": 8296,
      "Ġregimul": 8297,
      "Ġintampla": 8298,
      "Ġdeal": 8299,
      "ĠTel": 8300,
      "Ġfaza": 8301,
      "ĠfaceÈĽi": 8302,
      "Ġvizit": 8303,
      "Ġefectele": 8304,
      "ĠÈĻtiinÈĽifice": 8305,
      "59": 8306,
      "VÄĥ": 8307,
      "cani": 8308,
      "siunile": 8309,
      "ariile": 8310,
      "Ġmatemat": 8311,
      "Ġvenituri": 8312,
      "Ġargint": 8313,
      "ĠVen": 8314,
      "Ġexplor": 8315,
      "Ġnecunos": 8316,
      "Ġgreco": 8317,
      "Ġdictat": 8318,
      "Ġipote": 8319,
      "aÈĽiunea": 8320,
      "Ġideal": 8321,
      "Ġfrancezi": 8322,
      "ĠÃ®nfiinÈĽatÄĥ": 8323,
      "ĠSorin": 8324,
      "\")": 8325,
      "ness": 8326,
      "Ġradi": 8327,
      "ĠKremlin": 8328,
      "ĠfiindcÄĥ": 8329,
      "deau": 8330,
      "Ġnegoc": 8331,
      "Ġplece": 8332,
      "Ġcontribuit": 8333,
      "Ġdemisia": 8334,
      "ĠÃ®ncuraj": 8335,
      "Ġcen": 8336,
      "ĠcercetÄĥt": 8337,
      "Ġsala": 8338,
      "deÈĻte": 8339,
      "istan": 8340,
      "Ġradic": 8341,
      "Ġevita": 8342,
      "Ġcivile": 8343,
      "Ġmesajul": 8344,
      "ĠAsociaÈĽia": 8345,
      "Ġaeroport": 8346,
      "Guvernul": 8347,
      "ĠPap": 8348,
      "ĠPlat": 8349,
      "Ġpresei": 8350,
      "deap": 8351,
      "Ġuniversitar": 8352,
      "Ġsecrete": 8353,
      "Nici": 8354,
      "ĠcÄĥlu": 8355,
      "ĠFI": 8356,
      "unghi": 8357,
      "Aceste": 8358,
      "Ġdeschise": 8359,
      "ĠZiua": 8360,
      "Ioan": 8361,
      "tiune": 8362,
      "Ġure": 8363,
      "Ġapele": 8364,
      "Ġprofesionale": 8365,
      "Ġserve": 8366,
      "Ġetic": 8367,
      "ĠPoti": 8368,
      "Ġras": 8369,
      "Ġcoti": 8370,
      "Ġlegit": 8371,
      "Ġregizor": 8372,
      "Ġpopular": 8373,
      "Ġatacat": 8374,
      "ĠĠĠĠ": 8375,
      "fl": 8376,
      "Ġese": 8377,
      "Ġdistra": 8378,
      "vintele": 8379,
      "Ġprocedura": 8380,
      "ĠBelgia": 8381,
      "ĠGabriel": 8382,
      "ĠCul": 8383,
      "Ġcondu": 8384,
      "1998": 8385,
      "ĠuÈĻoarÄĥ": 8386,
      "ĠpÄĥtrun": 8387,
      "mm": 8388,
      "ĠPart": 8389,
      "Ġaltii": 8390,
      "oris": 8391,
      "Ġobtine": 8392,
      "2012": 8393,
      "Ġdezin": 8394,
      "Ġpatrul": 8395,
      "GospodÄĥrirea": 8396,
      "stre": 8397,
      "Ġvarie": 8398,
      "Ġdecenii": 8399,
      "ĠplatÄĥ": 8400,
      "ctii": 8401,
      "Ġexploat": 8402,
      "ĠÈĽes": 8403,
      "izeazÄĥ": 8404,
      "ariul": 8405,
      "oga": 8406,
      "Ġperfe": 8407,
      "Ġconstruirea": 8408,
      "ĠUlterior": 8409,
      "Ġavantaj": 8410,
      "ĠInstitutului": 8411,
      "Ġmulta": 8412,
      "Ġsustin": 8413,
      "Ġraportul": 8414,
      "Ġepoca": 8415,
      "Ġeliminarea": 8416,
      "ĠsutÄĥ": 8417,
      "ĠMal": 8418,
      "ĠpÄĥsÄĥ": 8419,
      "1990": 8420,
      "Ġocazie": 8421,
      "Ġmusul": 8422,
      "Ġvulnera": 8423,
      "ĠCalifor": 8424,
      "ĠDen": 8425,
      "Ġgrea": 8426,
      "ĠLA": 8427,
      "Ġplimb": 8428,
      "ĠOlt": 8429,
      "ĠTribun": 8430,
      "Noi": 8431,
      "ST": 8432,
      "yer": 8433,
      "cial": 8434,
      "Ġvier": 8435,
      "landez": 8436,
      "Ġ1967": 8437,
      "Ġcolect": 8438,
      "ĠmÄĥsura": 8439,
      "Ġmuzicale": 8440,
      "Ġsuflet": 8441,
      "ĠPrimÄĥria": 8442,
      "PÃ¢nÄĥ": 8443,
      "uare": 8444,
      "Ġpeni": 8445,
      "ÈĻcÄĥ": 8446,
      "Ġselect": 8447,
      "Ġputeri": 8448,
      "Ġlingv": 8449,
      "Ġinse": 8450,
      "ĠreÈĻedinÈĽa": 8451,
      "day": 8452,
      "vard": 8453,
      "Ġvorbi": 8454,
      "Ġcunoa": 8455,
      "Ġvoce": 8456,
      "oviÈĽa": 8457,
      "Ġconsilier": 8458,
      "ĠFilip": 8459,
      "ĠtrÄĥit": 8460,
      "ĠPopa": 8461,
      "ĠDuce": 8462,
      "Dupa": 8463,
      "Ġcra": 8464,
      "Ġfam": 8465,
      "Ġdinspre": 8466,
      "ĠCodul": 8467,
      "ciei": 8468,
      "Ġume": 8469,
      "ĠinformeazÄĥ": 8470,
      "Ġdetermina": 8471,
      "ĠpÄĥstrat": 8472,
      "Ġremarca": 8473,
      "Ġalign": 8474,
      "sat": 8475,
      "vate": 8476,
      "ĠAure": 8477,
      "ĠMunc": 8478,
      "Ġfaim": 8479,
      "alax": 8480,
      "Ġcobor": 8481,
      "ÄĥtÄĥlin": 8482,
      "ĠCernÄĥuÈĽi": 8483,
      "hia": 8484,
      "ĠPost": 8485,
      "ĠfiecÄĥr": 8486,
      "cizia": 8487,
      "Ġvalorile": 8488,
      "Ġastia": 8489,
      "Ġrealitatea": 8490,
      "ĠRO": 8491,
      "ĠmulÈĽime": 8492,
      "mir": 8493,
      "anian": 8494,
      "Ġimagin": 8495,
      "Vide": 8496,
      "Ġseg": 8497,
      "Ġtehnologie": 8498,
      "Ġprezente": 8499,
      "Ġserios": 8500,
      "Ġintegral": 8501,
      "LocalitÄĥÈĽi": 8502,
      "Gheorghe": 8503,
      "LOR": 8504,
      "Ġsue": 8505,
      "Ġaceeasi": 8506,
      "Ġpachet": 8507,
      "zÄĥr": 8508,
      "ĠinstanÈĽÄĥ": 8509,
      "Ġprincipalele": 8510,
      "Ġcultiv": 8511,
      "Ġcursurile": 8512,
      "Ġparticiparea": 8513,
      "antele": 8514,
      "ĠSE": 8515,
      "aliste": 8516,
      "diei": 8517,
      "Ġslu": 8518,
      "ales": 8519,
      "chiul": 8520,
      "Ġlegatura": 8521,
      "Ġinteli": 8522,
      "ĠQu": 8523,
      "ĠpÄĥrÄĥsit": 8524,
      "grÄĥ": 8525,
      "Ġpam": 8526,
      "ĠDom": 8527,
      "Ġcombusti": 8528,
      "Ġreferire": 8529,
      "Ġprem": 8530,
      "lick": 8531,
      "ĠprecizeazÄĥ": 8532,
      "Ġmiting": 8533,
      "ĠTeleorman": 8534,
      "Ġvarsta": 8535,
      "Ġdisponibil": 8536,
      "Ġnumite": 8537,
      "Ġgasi": 8538,
      "ĠlegatÄĥ": 8539,
      "Ġliterare": 8540,
      "aturii": 8541,
      "Ġstran": 8542,
      "ĠOf": 8543,
      "Ġbarb": 8544,
      "ĠTransilvaniei": 8545,
      "ACT": 8546,
      "Dis": 8547,
      "aniilor": 8548,
      "Ġminun": 8549,
      "ĠMijloc": 8550,
      "ample": 8551,
      "ĠcorupÈĽie": 8552,
      "Ġinculp": 8553,
      "UE": 8554,
      "ÅĤ": 8555,
      "ĠGol": 8556,
      "ĠVII": 8557,
      "oada": 8558,
      "neg": 8559,
      "ĠRomÃ¢neascÄĥ": 8560,
      "gaz": 8561,
      "ĠXXI": 8562,
      "ĠdirecÈĽia": 8563,
      "jude": 8564,
      "nul": 8565,
      "Ġdet": 8566,
      "ĠCFR": 8567,
      "ĠPlan": 8568,
      "Ġgest": 8569,
      "ĠViorica": 8570,
      "Ġprovocat": 8571,
      "ĠsuperioarÄĥ": 8572,
      "catolici": 8573,
      "ileniul": 8574,
      "Ġser": 8575,
      "Ġprobe": 8576,
      "itÄĥm": 8577,
      "low": 8578,
      "Ġ2025": 8579,
      "ĠconstrucÈĽii": 8580,
      "Ġredact": 8581,
      "Ġcompozitor": 8582,
      "LA": 8583,
      "Ġdege": 8584,
      "ĠRod": 8585,
      "Ġgenet": 8586,
      "ĠduratÄĥ": 8587,
      "Pat": 8588,
      "Ġplic": 8589,
      "Ġgraf": 8590,
      "ĠvreodatÄĥ": 8591,
      "Ġcircum": 8592,
      "Ġzonei": 8593,
      "Ġaeriene": 8594,
      "junct": 8595,
      "Ġfr": 8596,
      "itului": 8597,
      "osa": 8598,
      "Ġcrezut": 8599,
      "Ġminoritate": 8600,
      "Ġoferta": 8601,
      "Politicieni": 8602,
      "Cent": 8603,
      "iului": 8604,
      "ju": 8605,
      "win": 8606,
      "stere": 8607,
      "ĠBri": 8608,
      "udat": 8609,
      "1995": 8610,
      "Ġfactori": 8611,
      "qui": 8612,
      "Ġcuraj": 8613,
      "Ġarbit": 8614,
      "cÄĥm": 8615,
      "Ġviol": 8616,
      "ĠinfluenÈĽÄĥ": 8617,
      "Dist": 8618,
      "ĠÃ®nscris": 8619,
      "isip": 8620,
      "ĠLoc": 8621,
      "Ġincom": 8622,
      "Ġconsumul": 8623,
      "Ġinvestit": 8624,
      "ĠarÄĥta": 8625,
      "Ġpictor": 8626,
      "ĠmodernÄĥ": 8627,
      "Ġdificil": 8628,
      "Ġexprimat": 8629,
      "zo": 8630,
      "Ġadvers": 8631,
      "Ġatin": 8632,
      "Ġcorec": 8633,
      "ĠAsociaÈĽiei": 8634,
      "Sal": 8635,
      "raÈĽilor": 8636,
      "ĠistoricÄĥ": 8637,
      "ichel": 8638,
      "Ġtransformat": 8639,
      "Ġciviliz": 8640,
      "Ġinaugur": 8641,
      "ring": 8642,
      "ĠoperÄĥ": 8643,
      "sioni": 8644,
      "ĠLÄĥ": 8645,
      "Ġprotestat": 8646,
      "Ġtransportul": 8647,
      "Ġlansarea": 8648,
      "Ġ1938": 8649,
      "ebel": 8650,
      "Ġcursuri": 8651,
      "Ġoricare": 8652,
      "ĠArmatei": 8653,
      "67": 8654,
      "Sur": 8655,
      "oten": 8656,
      "Ġtraducere": 8657,
      "Ġdiscuta": 8658,
      "Ġprovincia": 8659,
      "CS": 8660,
      "teÈĻti": 8661,
      "ĠCand": 8662,
      "ĠvadÄĥ": 8663,
      "Ġdescris": 8664,
      "Ġrespective": 8665,
      "Ġredac": 8666,
      "euro": 8667,
      "ĠSar": 8668,
      "Ġscor": 8669,
      "ĠdorinÈĽa": 8670,
      "Ġolimp": 8671,
      "ZARE": 8672,
      "ĠreuÈĻi": 8673,
      "Ġghid": 8674,
      "Ġ65": 8675,
      "Ġtablo": 8676,
      "Ġaccele": 8677,
      "Ġbucure": 8678,
      "Ġlen": 8679,
      "Ġurb": 8680,
      "Ġelevii": 8681,
      "sii": 8682,
      "Ġcata": 8683,
      "seÈĻti": 8684,
      "ĠMen": 8685,
      "âĢĿ),": 8686,
      "Ġcabine": 8687,
      "ĠBac": 8688,
      "Ġsublin": 8689,
      "ĠindicÄĥ": 8690,
      "ĠÃ®nÄĥlÈĽime": 8691,
      "Ġorele": 8692,
      "ĠIT": 8693,
      "Ġniciodata": 8694,
      "ĠArtÄĥ": 8695,
      "Ġclimat": 8696,
      "Ġcadru": 8697,
      "ĠanalizÄĥ": 8698,
      "Ã¢ntÄĥ": 8699,
      "ĠscarÄĥ": 8700,
      "olacu": 8701,
      "ĠCount": 8702,
      "Ġachizit": 8703,
      "ĠgraniÈĽa": 8704,
      "63": 8705,
      "Ġlabor": 8706,
      "ĠMarii": 8707,
      "Ġstatutul": 8708,
      "Ġjuca": 8709,
      "ĠinstituÈĽiile": 8710,
      "tenci": 8711,
      "Ġmaterie": 8712,
      "61": 8713,
      "furi": 8714,
      "Ġsor": 8715,
      "ĠDol": 8716,
      "Ġlucrare": 8717,
      "otrivÄĥ": 8718,
      "ĠimportanÈĽÄĥ": 8719,
      "Ġweek": 8720,
      "ĠÃ®nfiinÈĽarea": 8721,
      "ĠintervenÈĽie": 8722,
      "vizion": 8723,
      "ĠFÄĥ": 8724,
      "ĠRed": 8725,
      "Ġlegume": 8726,
      "Ġero": 8727,
      "ĠstrÄĥine": 8728,
      "Ġrespin": 8729,
      "ĠXVI": 8730,
      "ĠprevÄĥzut": 8731,
      "Ġsovietic": 8732,
      "DA": 8733,
      "ois": 8734,
      "Ġmarile": 8735,
      "ĠPale": 8736,
      "Ġimpus": 8737,
      "Ġlideri": 8738,
      "ĠcumpÄĥrat": 8739,
      "Ġechivalen": 8740,
      "ml": 8741,
      "xul": 8742,
      "amnÄĥ": 8743,
      "Ġsurpri": 8744,
      "ĠDirect": 8745,
      "Ġvictorie": 8746,
      "Cop": 8747,
      "Ð²": 8748,
      "tiva": 8749,
      "ĠmedicalÄĥ": 8750,
      "Ġpractica": 8751,
      "Ġconfirm": 8752,
      "UM": 8753,
      "kin": 8754,
      "ĠvizeazÄĥ": 8755,
      "ĠPremiului": 8756,
      ".:": 8757,
      "aut": 8758,
      "anilor": 8759,
      "Ġfur": 8760,
      "Ġcald": 8761,
      "Ġcontinutul": 8762,
      "Ġ1964": 8763,
      "ĠNorve": 8764,
      "Ġdesfas": 8765,
      "bele": 8766,
      "ken": 8767,
      "ĠPiteÈĻti": 8768,
      "ĠTro": 8769,
      "Ġ33": 8770,
      "Ġculoarea": 8771,
      "ĠexperienÈĽa": 8772,
      "Ġliteratura": 8773,
      "Ġmasura": 8774,
      "Ġpp": 8775,
      "ĠIan": 8776,
      "tag": 8777,
      "ĠTu": 8778,
      "ĠspunÄĥ": 8779,
      "dition": 8780,
      "imitrie": 8781,
      "Casa": 8782,
      "Pol": 8783,
      "Ġabil": 8784,
      "Ġincident": 8785,
      "rant": 8786,
      "Ġcontul": 8787,
      "niÈĽa": 8788,
      "ĠmÄĥn": 8789,
      "Ġinterzice": 8790,
      "ĠcredincioÈĻi": 8791,
      "Ele": 8792,
      "Pal": 8793,
      "ĠlegÄĥtura": 8794,
      "Ġsume": 8795,
      "Ġlocurile": 8796,
      "Ġ1946": 8797,
      "ĠCÄĥlin": 8798,
      "Ġconfesional": 8799,
      "Ġconect": 8800,
      "Ġ000": 8801,
      "Ġperioade": 8802,
      "Ġcurtea": 8803,
      "Ġfranceze": 8804,
      "bar": 8805,
      "seud": 8806,
      "ĠÃ®nregistraÈĽi": 8807,
      "Ġprodusul": 8808,
      "inelor": 8809,
      "ĠGhi": 8810,
      "formÄĥ": 8811,
      "Ġ1952": 8812,
      "Ġizbuc": 8813,
      "ĠTudorel": 8814,
      "ĠPrimarul": 8815,
      "Ġinstrumente": 8816,
      "62": 8817,
      "sitÄĥ": 8818,
      "Ġaudi": 8819,
      "ĠWar": 8820,
      "Ġaspectul": 8821,
      "ĠmeargÄĥ": 8822,
      "Rusia": 8823,
      "ĠrealÄĥ": 8824,
      "Ġarte": 8825,
      "Ġprivit": 8826,
      "Ġarestat": 8827,
      "Ġmarketing": 8828,
      "ĠvitezÄĥ": 8829,
      "Ġspui": 8830,
      "1994": 8831,
      "Ġ1925": 8832,
      "ĠJudec": 8833,
      "Ġbrowser": 8834,
      "icului": 8835,
      "ĠrealizeazÄĥ": 8836,
      "Ġarticolului": 8837,
      "Ġ1939": 8838,
      "ĠIsus": 8839,
      "ĠAgric": 8840,
      "iner": 8841,
      "Ġrom": 8842,
      "ĠHal": 8843,
      "Ġdirij": 8844,
      "Ġapropie": 8845,
      "Acesta": 8846,
      "Ġdieta": 8847,
      "otÄĥ": 8848,
      "ĠOlanda": 8849,
      "riac": 8850,
      "Ġinam": 8851,
      "ĠSÄĥnÄĥtÄĥÈĽii": 8852,
      "ĠPRO": 8853,
      "Äĥturile": 8854,
      "ĠpotenÈĽi": 8855,
      "sului": 8856,
      "Ġ1000": 8857,
      "ogen": 8858,
      "Ġader": 8859,
      "Ġ55": 8860,
      "Ġrare": 8861,
      "1997": 8862,
      "Ġintroduce": 8863,
      "ĠCalifornia": 8864,
      "Sim": 8865,
      "Ġconstatat": 8866,
      "ĠCartea": 8867,
      "Ġdoct": 8868,
      "ĠÃ®nlocuit": 8869,
      "olicÄĥ": 8870,
      "curilor": 8871,
      "ĠNea": 8872,
      "urÄĥri": 8873,
      "Ġastazi": 8874,
      "Ġreguli": 8875,
      "Ġconstruite": 8876,
      "Ġchimice": 8877,
      "umele": 8878,
      "Ġpromis": 8879,
      "ologul": 8880,
      "ĠAcademia": 8881,
      "andi": 8882,
      "Ġparoh": 8883,
      "Ġsimte": 8884,
      "ozitate": 8885,
      "Ġmembrilor": 8886,
      "Ġdatorita": 8887,
      "Ġnaz": 8888,
      "Ġ1949": 8889,
      "Ġomor": 8890,
      "Ġcerere": 8891,
      "Ġdocumentele": 8892,
      "ĠrÄĥspÃ¢ndi": 8893,
      "cs": 8894,
      "ĠBei": 8895,
      "zire": 8896,
      "Ġ1957": 8897,
      "restre": 8898,
      "Ġmeni": 8899,
      "tiri": 8900,
      "ĠcompletÄĥ": 8901,
      "ĠMarele": 8902,
      "ĠTurn": 8903,
      "Ġaviz": 8904,
      "Ġzero": 8905,
      "ĠumanÄĥ": 8906,
      "oxid": 8907,
      "Ġgenun": 8908,
      "mormÃ¢n": 8909,
      "DO": 8910,
      "ĠFo": 8911,
      "Ġscriu": 8912,
      "ĠorganizatÄĥ": 8913,
      "........": 8914,
      "Ġreligie": 8915,
      "Muz": 8916,
      "zis": 8917,
      "ĠhÃ¢r": 8918,
      "oziÈĽiei": 8919,
      "ville": 8920,
      "riÈĻ": 8921,
      "Inform": 8922,
      "Ġpietre": 8923,
      "ĠBaia": 8924,
      "Ġelectronice": 8925,
      "kel": 8926,
      "Ġpedeap": 8927,
      "rÄĥrile": 8928,
      "ĠinternÄĥ": 8929,
      "reunÄĥ": 8930,
      "Äĥrare": 8931,
      "Ġnoului": 8932,
      "Ġdispus": 8933,
      "ĠobiÈĻnuit": 8934,
      "tire": 8935,
      "Ġofensi": 8936,
      "ĠanumitÄĥ": 8937,
      "Cred": 8938,
      "Ġdiz": 8939,
      "ĠDJ": 8940,
      "ĠProf": 8941,
      "ĠconstrucÈĽia": 8942,
      "Ġnegativ": 8943,
      "wi": 8944,
      "Ñı": 8945,
      "ĠcrizÄĥ": 8946,
      "ĠÃ®nÈĽeleg": 8947,
      "Ġabsolvit": 8948,
      "ĠcomponenÈĽÄĥ": 8949,
      "ortÄĥ": 8950,
      "anÈĽele": 8951,
      "isia": 8952,
      "Ġminci": 8953,
      "Ġpremiul": 8954,
      "Ġasigure": 8955,
      "69": 8956,
      "cit": 8957,
      "ĠMatei": 8958,
      "ĠafiÈĻ": 8959,
      "ĠcomunitÄĥÈĽii": 8960,
      "Ġrefuz": 8961,
      "Ġ1947": 8962,
      "1991": 8963,
      "ĠMont": 8964,
      "ĠArmata": 8965,
      "ĠpÃ¢r": 8966,
      "ĠAR": 8967,
      "ĠAur": 8968,
      "Ġpromo": 8969,
      "Ġtem": 8970,
      "ĠÃ®ncor": 8971,
      "Ġvizitat": 8972,
      "Ġnegative": 8973,
      "Ġintensi": 8974,
      "Stud": 8975,
      "Ġgoluri": 8976,
      "ĠSuedia": 8977,
      "Ġschi": 8978,
      "ĠBibliote": 8979,
      "Ġauten": 8980,
      "verse": 8981,
      "cÈĽiunile": 8982,
      "Ġintrare": 8983,
      "Ġpersonaj": 8984,
      "ĠcealaltÄĥ": 8985,
      "uat": 8986,
      "Ġgospod": 8987,
      "Ġfosta": 8988,
      "ĠJocurile": 8989,
      "2014": 8990,
      "Ġcoleg": 8991,
      "ĠLucian": 8992,
      "core": 8993,
      "ĠduÈĻ": 8994,
      "ĠsÄĥl": 8995,
      "oarei": 8996,
      "Ġdreptului": 8997,
      "Ġcontinue": 8998,
      "Ġmunicip": 8999,
      "Ġegal": 9000,
      "rezi": 9001,
      "Ġorche": 9002,
      "Ġrecente": 9003,
      "ĠfinanÈĽare": 9004,
      "Ġrecomandat": 9005,
      "Ġvictime": 9006,
      "Ġseparat": 9007,
      ".).": 9008,
      "German": 9009,
      "bia": 9010,
      "zator": 9011,
      "ics": 9012,
      "icilor": 9013,
      "Ġobs": 9014,
      "Ġnevoia": 9015,
      "ĠferatÄĥ": 9016,
      "ĠEmil": 9017,
      "ĠÃ®nvins": 9018,
      "81": 9019,
      "82": 9020,
      "He": 9021,
      "ilul": 9022,
      "ĠPIB": 9023,
      "ĠÃ®ntune": 9024,
      "Ġrezul": 9025,
      "ĠGeorg": 9026,
      "ĠCornel": 9027,
      "Ġagricole": 9028,
      "ĠpregÄĥtit": 9029,
      "Gener": 9030,
      "iÈĻti": 9031,
      "Ġpr": 9032,
      "urs": 9033,
      "ĠROM": 9034,
      "tidul": 9035,
      "ĠCentral": 9036,
      "ĠÈĻcolii": 9037,
      "ĠvÃ¢ndut": 9038,
      "ĠreÈĻedinÈĽÄĥ": 9039,
      "Ori": 9040,
      "Ġciup": 9041,
      "ĠTimes": 9042,
      "Ġindivid": 9043,
      "Ġbogat": 9044,
      "ĠprevÄĥzute": 9045,
      "ĠElveÈĽia": 9046,
      "ĠPier": 9047,
      "ĠMot": 9048,
      "diÈĽia": 9049,
      "Ġneob": 9050,
      "Ġversiune": 9051,
      "Ġinvers": 9052,
      "Ġfemeilor": 9053,
      "Ġmetoda": 9054,
      "ãĥ": 9055,
      "Ġiniti": 9056,
      "Ġarb": 9057,
      "ĠKing": 9058,
      "ĠWi": 9059,
      "ĠBotoÈĻ": 9060,
      "ĠdezvÄĥlui": 9061,
      "enne": 9062,
      "stini": 9063,
      "ieÈĻte": 9064,
      "ĠparÈĽial": 9065,
      "Ġbucurie": 9066,
      "ĠbazeazÄĥ": 9067,
      "ĠpÃ¢": 9068,
      "izii": 9069,
      "ĠconfesionalÄĥ": 9070,
      "ĠSerbia": 9071,
      "52": 9072,
      "uarea": 9073,
      "rinde": 9074,
      "zÄĥrii": 9075,
      "ĠUnii": 9076,
      "ĠLazÄĥr": 9077,
      "ĠdateazÄĥ": 9078,
      "ĠCentralÄĥ": 9079,
      "Ġdovezi": 9080,
      "Ġatras": 9081,
      "Ġelimin": 9082,
      "Ġcomite": 9083,
      "ĠparcÄĥ": 9084,
      "Ġsufer": 9085,
      "ĠnecesitÄĥ": 9086,
      "Ġasigurarea": 9087,
      "PersonalitÄĥÈĽi": 9088,
      "GB": 9089,
      "Ġsent": 9090,
      "Ġanivers": 9091,
      "Ġteste": 9092,
      "ficÄĥri": 9093,
      "ther": 9094,
      "51": 9095,
      "adevÄĥr": 9096,
      "Ġbon": 9097,
      "ĠIosif": 9098,
      "scop": 9099,
      "ĠTwitter": 9100,
      "Ġporn": 9101,
      "ĠTransport": 9102,
      "ĠCiolacu": 9103,
      "Ġvariante": 9104,
      "Ġactuale": 9105,
      "Mihai": 9106,
      "Ġreusit": 9107,
      "date": 9108,
      "Ð´": 9109,
      "ĠCated": 9110,
      "ĠMA": 9111,
      "ĠKa": 9112,
      "ĠcÄĥlÄĥtorie": 9113,
      "mus": 9114,
      "Ġui": 9115,
      "orup": 9116,
      "Ġmanagement": 9117,
      "ĠclÄĥdiri": 9118,
      "Ġinvitat": 9119,
      "if": 9120,
      "ĠPle": 9121,
      "Ġmobile": 9122,
      "ĠChrist": 9123,
      "Ġislam": 9124,
      "Ġstudiul": 9125,
      "Ġbombard": 9126,
      "Ġcov": 9127,
      "ĠBÃ¢r": 9128,
      "Ġmedi": 9129,
      "Ġamend": 9130,
      "Ġefectul": 9131,
      "Ġsprijini": 9132,
      "Ġmedii": 9133,
      "ĠZiarul": 9134,
      "Ġvirt": 9135,
      "iepiscop": 9136,
      "ĠWindows": 9137,
      "Ġinscrip": 9138,
      "ĠAD": 9139,
      "Ġhai": 9140,
      "Ġnumarul": 9141,
      "2013": 9142,
      "ĠjudeÈĽe": 9143,
      "ĠArte": 9144,
      "Ġregiunile": 9145,
      "Ġmultiple": 9146,
      "ĠEducaÈĽiei": 9147,
      "ĠMace": 9148,
      "ĠHit": 9149,
      "ĠorganizaÈĽii": 9150,
      "ĠmÄĥsurile": 9151,
      "Ġdorim": 9152,
      "ĠÃ®ncheie": 9153,
      "rak": 9154,
      "Ġreduc": 9155,
      "ĠLegii": 9156,
      "Ġilegal": 9157,
      "atra": 9158,
      "atÄĥl": 9159,
      "ÄĥtrÃ¢n": 9160,
      "ĠArt": 9161,
      "Ġimportanta": 9162,
      "ĠapÄĥrÄĥrii": 9163,
      "Ġiese": 9164,
      "ĠprofesionalÄĥ": 9165,
      "ĠreÈĽelele": 9166,
      "Form": 9167,
      "tati": 9168,
      "ÈĻescu": 9169,
      "Ġcomunitatea": 9170,
      "Ġinvat": 9171,
      "ALDE": 9172,
      "Ġsecuritatea": 9173,
      "Ġsovietice": 9174,
      "IR": 9175,
      "Ġcura": 9176,
      "oritÄĥÈĽile": 9177,
      "ĠBat": 9178,
      "ĠNap": 9179,
      "lica": 9180,
      "ĠÃ®nregistrate": 9181,
      "ĠnemulÈĽum": 9182,
      "sup": 9183,
      "tist": 9184,
      "Ġtub": 9185,
      "Imp": 9186,
      "Ġcutrem": 9187,
      "ĠTÄĥriceanu": 9188,
      "ĠurmÄĥtor": 9189,
      "Ġenergiei": 9190,
      "ĠApel": 9191,
      "Ġstatelor": 9192,
      "ĠFilm": 9193,
      "Ġmaghiar": 9194,
      "Ġpilot": 9195,
      "Ġdulce": 9196,
      "Serv": 9197,
      "Ġtric": 9198,
      "ĠAdun": 9199,
      "Ġdimine": 9200,
      "utaÈĽi": 9201,
      "ĠRel": 9202,
      "ĠBill": 9203,
      "Ġvalid": 9204,
      "ĠtradiÈĽionale": 9205,
      "Ġordinul": 9206,
      "ĠFlorea": 9207,
      "Ob": 9208,
      "ticÄĥ": 9209,
[...]
